{"<|endoftext|>":0,"!":1,"\"":2,"#":3,"$":4,"%":5,"&":6,"'":7,"(":8,")":9,"*":10,"+":11,",":12,"-":13,".":14,"/":15,"0":16,"1":17,"2":18,"3":19,"4":20,"5":21,"6":22,"7":23,"8":24,"9":25,":":26,";":27,"<":28,"=":29,">":30,"?":31,"@":32,"A":33,"B":34,"C":35,"D":36,"E":37,"F":38,"G":39,"H":40,"I":41,"J":42,"K":43,"L":44,"M":45,"N":46,"O":47,"P":48,"Q":49,"R":50,"S":51,"T":52,"U":53,"V":54,"W":55,"X":56,"Y":57,"Z":58,"[":59,"\\":60,"]":61,"^":62,"_":63,"`":64,"a":65,"b":66,"c":67,"d":68,"e":69,"f":70,"g":71,"h":72,"i":73,"j":74,"k":75,"l":76,"m":77,"n":78,"o":79,"p":80,"q":81,"r":82,"s":83,"t":84,"u":85,"v":86,"w":87,"x":88,"y":89,"z":90,"{":91,"|":92,"}":93,"~":94,"¡":95,"¢":96,"£":97,"¤":98,"¥":99,"¦":100,"§":101,"¨":102,"©":103,"ª":104,"«":105,"¬":106,"®":107,"¯":108,"°":109,"±":110,"²":111,"³":112,"´":113,"µ":114,"¶":115,"·":116,"¸":117,"¹":118,"º":119,"»":120,"¼":121,"½":122,"¾":123,"¿":124,"À":125,"Á":126,"Â":127,"Ã":128,"Ä":129,"Å":130,"Æ":131,"Ç":132,"È":133,"É":134,"Ê":135,"Ë":136,"Ì":137,"Í":138,"Î":139,"Ï":140,"Ð":141,"Ñ":142,"Ò":143,"Ó":144,"Ô":145,"Õ":146,"Ö":147,"×":148,"Ø":149,"Ù":150,"Ú":151,"Û":152,"Ü":153,"Ý":154,"Þ":155,"ß":156,"à":157,"á":158,"â":159,"ã":160,"ä":161,"å":162,"æ":163,"ç":164,"è":165,"é":166,"ê":167,"ë":168,"ì":169,"í":170,"î":171,"ï":172,"ð":173,"ñ":174,"ò":175,"ó":176,"ô":177,"õ":178,"ö":179,"÷":180,"ø":181,"ù":182,"ú":183,"û":184,"ü":185,"ý":186,"þ":187,"ÿ":188,"Ā":189,"ā":190,"Ă":191,"ă":192,"Ą":193,"ą":194,"Ć":195,"ć":196,"Ĉ":197,"ĉ":198,"Ċ":199,"ċ":200,"Č":201,"č":202,"Ď":203,"ď":204,"Đ":205,"đ":206,"Ē":207,"ē":208,"Ĕ":209,"ĕ":210,"Ė":211,"ė":212,"Ę":213,"ę":214,"Ě":215,"ě":216,"Ĝ":217,"ĝ":218,"Ğ":219,"ğ":220,"Ġ":221,"ġ":222,"Ģ":223,"ģ":224,"Ĥ":225,"ĥ":226,"Ħ":227,"ħ":228,"Ĩ":229,"ĩ":230,"Ī":231,"ī":232,"Ĭ":233,"ĭ":234,"Į":235,"į":236,"İ":237,"ı":238,"Ĳ":239,"ĳ":240,"Ĵ":241,"ĵ":242,"Ķ":243,"ķ":244,"ĸ":245,"Ĺ":246,"ĺ":247,"Ļ":248,"ļ":249,"Ľ":250,"ľ":251,"Ŀ":252,"ŀ":253,"Ł":254,"ł":255,"Ń":256,"Ġt":257,"he":258,"Ġa":259,"in":260,"Ġthe":261,"er":262,"on":263,"Ġ,":264,"re":265,"Ġs":266,"ed":267,"Ġo":268,"Ġw":269,"nd":270,"at":271,"Ġ.":272,"or":273,"it":274,"Ġc":275,"en":276,"Ġf":277,"is":278,"es":279,"ar":280,"Ġof":281,"Ġb":282,"an":283,"Ġin":284,"al":285,"ing":286,"Ġp":287,"Ġand":288,"as":289,"Ġto":290,"ro":291,"ic":292,"Ġm":293,"Ġd":294,"Ġh":295,"ion":296,"le":297,"ou":298,"ĠT":299,"Ġre":300,"Ġ=":301,"Ġ\"":302,"ĠA":303,"ĠS":304,"ent":305,"il":306,"Ġth":307,"Ġ1":308,"st":309,"ĠC":310,"el":311,"om":312,"Ġl":313,"am":314,"ĠĊ":315,"Ġe":316,"Ġn":317,"Ġ@":318,"ad":319,"ac":320,"Ġwas":321,"ĠM":322,"ur":323,"ĠThe":324,"ec":325,"Ġon":326,"ly":327,"ĠB":328,"ĠI":329,"Ġg":330,"Ġ'":331,"et":332,"ol":333,"id":334,"iv":335,"im":336,"Ġfor":337,"ir":338,"-@":339,"Ġ@-@":340,"ig":341,"ot":342,"ter":343,"Ġas":344,"ĠH":345,"us":346,"ow":347,"Ġst":348,"ut":349,"ith":350,"ay":351,"Ġ2":352,"ĠP":353,"ation":354,"ver":355,"Ġbe":356,"her":357,"Ġthat":358,"Ġwith":359,"ĠR":360,"ce":361,"th":362,"ĠD":363,"Ġis":364,"un":365,"em":366,"ĠF":367,"Ġwh":368,"ul":369,"Ġby":370,"Ġal":371,"ch":372,"Ġ)":373,"Ġ(":374,"ĠW":375,"Ġcon":376,"ra":377,"ĠG":378,"os":379,"ĠL":380,"ĠN":381,"Ġat":382,"ers":383,"ct":384,"Ġit":385,"Ġ19":386,"rom":387,"and":388,"Ġan":389,"um":390,"est":391,"ĠJ":392,"ag":393,"Ġhe":394,"00":395,"ist":396,"ain":397,"od":398,"av":399,"ri":400,"ĠE":401,"ĠO":402,"Ġfrom":403,"Ġcom":404,"Ġhis":405,"op":406,"Ġpro":407,"res":408,"ies":409,"if":410,"Ġv":411,"ort":412,"ere":413,"ill":414,"ld":415,"Ġde":416,"pp":417,"Ġsu":418,"ore":419,"ĠIn":420,"Ġr":421,"Ġse":422,"Ġwere":423,"ew":424,"ong":425,"igh":426,"ard":427,"ate":428,"all":429,"art":430,"ak":431,"ich":432,"Ġch":433,"Ġor":434,"ab":435,"ant":436,"ud":437,"oc":438,"ber":439,"Ġex":440,"gh":441,"ity":442,"ated":443,"pt":444,"ess":445,"ear":446,"ĠK":447,"Ġpl":448,"ame":449,"qu":450,"ive":451,"rou":452,"Ġare":453,"Ġâ":454,"Ġsh":455,"Ġk":456,"ack":457,"ect":458,"ĠâĢ":459,"ĠU":460,"Ġhad":461,"se":462,"Ġwhich":463,"red":464,"ov":465,"ĠSt":466,"ast":467,"Ġsp":468,"ian":469,"Ġy":470,"ment":471,"Ġle":472,"Ġnot":473,"ge":474,"ord":475,"rit":476,"ip":477,"ine":478,"ell":479,"ally":480,"our":481,"ost":482,"ight":483,"ther":484,"ap":485,"Ġu":486,"ish":487,"ĠCh":488,"oun":489,"ia":490,"Ġ3":491,"ave":492,"ary":493,"ust":494,"og":495,"Ġ200":496,"Ġun":497,"ous":498,"irst":499,"ĠV":500,"cc":501,"Ġinc":502,"Ġ;":503,"Ġcomp":504,"ru":505,"ions":506,"Ġtheir":507,"Ġbut":508,"ide":509,"ure":510,"so":511,"Ġcont":512,"Ġint":513,"fter":514,"ical":515,"ial":516,"Ġar":517,"Ġfirst":518,"ould":519,"Ġits":520,"hed":521,"ĠâĢĵ":522,"Ġwhe":523,"wo":524,"out":525,"ub":526,"Ġ20":527,"ff":528,"Ġ:":529,"ue":530,"Ġher":531,"own":532,"ok":533,"Ġalso":534,"Ġcl":535,"per":536,"ign":537,"ater":538,"ran":539,"orm":540,"ie":541,"ome":542,"ork":543,"ass":544,"ire":545,"end":546,"Ġres":547,"Ġab":548,"Ġad":549,"Ġus":550,"ry":551,"Ġrec":552,"Ġhave":553,"age":554,"ĠHe":555,"Ġ4":556,"Ġro":557,"mer":558,"Ġone":559,"ond":560,"low":561,"Ġhas":562,"ĠTh":563,"du":564,"Ġ5":565,"Ġper":566,"Ġbeen":567,"ime":568,"Ġtwo":569,"ence":570,"land":571,"Ġ18":572,".@":573,"Ġ@.@":574,"ult":575,"ree":576,"ough":577,"ile":578,"Ġwho":579,"ĠAl":580,"Ġsc":581,"uring":582,"pl":583,"ory":584,"ition":585,"ric":586,"ations":587,"Ġdis":588,"Ġthis":589,"Ġbec":590,"Ġapp":591,"iz":592,"ĠIt":593,"are":594,"ach":595,"lud":596,"ade":597,"Ġplay":598,"Ġj":599,"Ġman":600,"act":601,"ely":602,"Ġpart":603,"Ġdes":604,"Ġag":605,"Ġthey":606,"Ġyear":607,"ount":608,"Ġ201":609,"Ġover":610,"Ġother":611,"ound":612,"Ġafter":613,"ib":614,"over":615,"Ġser":616,"Ġen":617,"Ġoff":618,"Ġim":619,"ction":620,"ĠY":621,"ke":622,"ite":623,",@":624,"Ġ@,@":625,"te":626,"urn":627,"Ġinclud":628,"ress":629,"ance":630,"ang":631,"Ġatt":632,"ice":633,"ace":634,"ark":635,"Ġout":636,"wn":637,"ph":638,"ember":639,"Ġpre":640,"Ġup":641,"ens":642,"man":643,"Ġev":644,"Ġtime":645,"nder":646,"rough":647,"ced":648,"Ġfin":649,"Ġinto":650,"one":651,"port":652,"round":653,"we":654,"ren":655,"les":656,"int":657,"ĠOn":658,"vel":659,"Ġcomm":660,"Ġshe":661,"ason":662,"amp":663,"Ġte":664,"Ġwould":665,"ward":666,"Ġmore":667,"Ġ6":668,"ied":669,"ose":670,"rib":671,"ĠUn":672,"Ġall":673,"ings":674,"tern":675,"ces":676,"able":677,"Ġwe":678,"ited":679,"ever":680,"ents":681,"Ġhim":682,"ased":683,"ors":684,"oy":685,"ood":686,"Ġcent":687,"ix":688,"ase":689,"ild":690,"ĠAn":691,"Ġ7":692,"Ġwork":693,"ates":694,"ious":695,"ath":696,"Ġpo":697,"rop":698,"old":699,"als":700,"iss":701,"ey":702,"ict":703,"Ġfe":704,"Ġthem":705,"gan":706,"Ġsec":707,"Ġbet":708,"Ġwhen":709,"Ġsong":710,"Ġrem":711,"ep":712,"form":713,"ail":714,"fer":715,"Ġear":716,"ubl":717,"aw":718,"Ġkn":719,"ake":720,"aus":721,"Ġmost":722,"Ġcons":723,"Ġduring":724,"ĠAs":725,"orth":726,"Ġnew":727,"ered":728,"ilm":729,"ved":730,"att":731,"Ġonly":732,"Ġ9":733,"Ġdec":734,"Ġ8":735,"ick":736,"Ġgame":737,"ons":738,"ug":739,"Ġtr":740,"ft":741,"oth":742,"ook":743,"ĠMar":744,"reat":745,"way":746,"Ġcan":747,"ollow":748,"outh":749,"ween":750,"ĠEn":751,"Ġ199":752,"ters":753,"Ġrel":754,"ind":755,"Ġabout":756,"Ġseason":757,"Ġagain":758,"ral":759,"Ġthree":760,"ational":761,"Ġunder":762,"ular":763,"Ġme":764,"Ġthan":765,"ĠCom":766,"ĠAr":767,"hip":768,"ob":769,"Ġne":770,"Ġbetween":771,"Ġfl":772,"hn":773,"ve":774,"Ġchar":775,"Ġcol":776,"Ġrecord":777,"iew":778,"ron":779,"fore":780,"Ġthrough":781,"ision":782,"orn":783,"Ġ00":784,"ock":785,"Ġver":786,"Ġlater":787,"Ġnum":788,"Ġend":789,"olog":790,"ames":791,"Ġpos":792,"Ġwrit":793,"Ġprodu":794,"Ġwhile":795,"Ġact":796,"Ġrele":797,"Ġfilm":798,"ished":799,"Ġpr":800,"ans":801,"Ġreg":802,"Ġform":803,"Ġass":804,"ĠSe":805,"ury":806,"ted":807,"ts":808,"Ġmade":809,"Ġsub":810,"Ġpe":811,"Ġso":812,"orld":813,"Ġret":814,"ĠNew":815,"Ġspec":816,"Ġacc":817,"Ġqu":818,"Ġwhere":819,"ener":820,"Ġmov":821,"hes":822,"meric":823,"ating":824,"Ġinter":825,"ĠLe":826,"ĠAmeric":827,"Ġra":828,"Ġsome":829,"Ġco":830,"Ġlar":831,"Ġbu":832,"Ġdef":833,"bum":834,"Ġac":835,"Ġmus":836,"Ġfollow":837,"ĠAt":838,"ins":839,"ived":840,"ific":841,"ual":842,"Ġam":843,"Ġsuch":844,"Ġsecond":845,"ike":846,"Ġfour":847,"Ġind":848,"ann":849,"hen":850,"Ġused":851,"ĠRe":852,"ics":853,"lect":854,"Ġday":855,"iel":856,"ily":857,"ĠThis":858,"Ġ0":859,"Ġpubl":860,"Ġcall":861,"ĠJo":862,"ll":863,"Ġalbum":864,"Ġ000":865,"rans":866,"Ġdo":867,"any":868,"Ġbefore":869,"ros":870,"ĠSh":871,"Ġsy":872,"aid":873,"ĠEng":874,"Ġbeing":875,"Ġ10":876,"uc":877,"Ġep":878,"Ġsupp":879,"Ġthere":880,"Ġyears":881,"ars":882,"owever":883,"Ġent":884,"ife":885,"Ġhigh":886,"Ġfound":887,"ird":888,"Ġno":889,"Ġset":890,"ines":891,"iver":892,"io":893,"other":894,"ject":895,"Ġsur":896,"aj":897,"ten":898,"Ġtra":899,"Ġ12":900,"ised":901,"ities":902,"velop":903,"Ġbl":904,"ale":905,"Ġseries":906,"Ġloc":907,"Ġnumber":908,"Ġpres":909,"ane":910,"ause":911,"ode":912,"ek":913,"ton":914,"ĠSc":915,"ier":916,"ise":917,"Ġsever":918,"ince":919,"Ġboth":920,"ank":921,"row":922,"irect":923,"son":924,"Ġthen":925,"ĠBrit":926,"iet":927,"Ġ16":928,"Ġepis":929,"Ġincluding":930,"its":931,"igin":932,"pr":933,"Ġ/":934,"Ġagainst":935,"Ġwell":936,"Ġbecame":937,"Ġexp":938,"Ġknown":939,"Ġtrans":940,"Ġcharac":941,"ĠâĢĶ":942,"ram":943,"Ġback":944,"Ġadd":945,"Ġpop":946,"Ġgo":947,"urch":948,"Ġdesc":949,"Ġsing":950,"ield":951,"Ġperform":952,"ained":953,"Ġrece":954,"ident":955,"Ġem":956,"ert":957,"ures":958,"Ġinv":959,"Ġdep":960,"Ġ198":961,"air":962,"ern":963,"ather":964,"ful":965,"ĠZ":966,"Ġmon":967,"Ġmany":968,"Ġmain":969,"Ġstud":970,"Ġlong":971,"inn":972,"though":973,"up":974,"ool":975,"ĠUnited":976,"led":977,"ement":978,"Ġ15":979,"ower":980,"ĠJohn":981,"Ġop":982,"Ġ11":983,"ined":984,"Ġmet":985,"ober":986,"ley":987,"Ġ17":988,"Ġcentury":989,"Ġteam":990,"Ġest":991,"ĠAfter":992,"yl":993,"Ġmin":994,"uch":995,"ute":996,"Ġdevelop":997,"ĠShe":998,"iam":999,"Ġshow":1000,"elf":1001,"Ġrep":1002,"Ġconc":1003,"ative":1004,"Ġcre":1005,"overn":1006,"ared":1007,"Ġ194":1008,"Ġorigin":1009,"Ġsm":1010,"ivers":1011,"az":1012,"Ġlead":1013,"Ġseveral":1014,"ah":1015,"Ġob":1016,"Ġrev":1017,"Ġmill":1018,"erm":1019,"ually":1020,"oot":1021,"Ġbegan":1022,"Ġ196":1023,"ired":1024,"Ġdif":1025,"Ġcontin":1026,"Ġsign":1027,"ik":1028,"ĠInd":1029,"ments":1030,"ized":1031,"Ġ197":1032,"Ġdirect":1033,"au":1034,"Ġext":1035,"ross":1036,"emb":1037,"der":1038,"Ġpol":1039,"Ġmay":1040,"apt":1041,"els":1042,"ĠWh":1043,"Ġcomple":1044,"Ġart":1045,"ĠBr":1046,"ĠIs":1047,"une":1048,"til":1049,"Ġcrit":1050,"Ġhist":1051,"Ġearly":1052,"Ġcould":1053,"ĠCon":1054,"Ġdid":1055,"Ġbel":1056,"Ġcalled":1057,"ued":1058,"Ġnear":1059,"Ġepisode":1060,"yp":1061,"Ġdescrib":1062,"imes":1063,"Ġbro":1064,"roup":1065,"ople":1066,"Ġdown":1067,"Ġrun":1068,"aking":1069,"Ġdisc":1070,"Ġalong":1071,"ccess":1072,"ĠMay":1073,"Ġfeat":1074,"Ġinst":1075,"ĠAmerican":1076,"Ġsaid":1077,"Ġdist":1078,"Ġinf":1079,"Ġimp":1080,"ink":1081,"Ġins":1082,"ty":1083,"Ġthese":1084,"Ġmil":1085,"ven":1086,"ĠGer":1087,"gest":1088,"ium":1089,"enn":1090,"ĠBl":1091,"ĠAust":1092,"Ġresp":1093,"ull":1094,"ruct":1095,"ured":1096,"Ġthough":1097,"Ġship":1098,"ove":1099,"Ġoper":1100,"ĠBritish":1101,"Ã©":1102,"Ġuntil":1103,"Ġprev":1104,"itt":1105,"amed":1106,"Ġcar":1107,"cept":1108,"Ġstart":1109,"Ġcity":1110,"Ġgener":1111,"Ġsame":1112,"ains":1113,"ĠWar":1114,"ists":1115,"ially":1116,"ided":1117,"Ġreleased":1118,"Ġland":1119,"ism":1120,"ĠCar":1121,"Ġown":1122,"Ġwar":1123,"Ġany":1124,"Ġprov":1125,"Ġreturn":1126,"Ġair":1127,"ĠThey":1128,"xt":1129,"erson":1130,"oman":1131,"Ġmusic":1132,"Ġkm":1133,"Ġdesign":1134,"ajor":1135,"ĠPl":1136,"ible":1137,"osed":1138,"Ġsim":1139,"Ġconst":1140,"Ġappear":1141,"Ġmillion":1142,"Ġbecause":1143,"Ġfam":1144,"ash":1145,"Ġmat":1146,"Ġarea":1147,"Ġuse":1148,"Ġ13":1149,"ĠAug":1150,"ĠChr":1151,"ĠAugust":1152,"Ġocc":1153,"Ġph":1154,"Ġopen":1155,"Ġlike":1156,"ony":1157,"Ġsuccess":1158,"ole":1159,"ouse":1160,"erv":1161,"Ġcount":1162,"Ġpass":1163,"oss":1164,"Ġeff":1165,"Ġpeople":1166,"my":1167,"chool":1168,"und":1169,"ĠSp":1170,"stem":1171,"ĠCl":1172,"Ġoffic":1173,"ets":1174,"Ġsix":1175,"uth":1176,"ange":1177,"ues":1178,"Ġ195":1179,"Ġsupport":1180,"Ġaround":1181,"Ġsmall":1182,"ĠCol":1183,"ĠHowever":1184,"ĠSept":1185,"Ġdam":1186,"Ġ%":1187,"Ġadv":1188,"Ġmod":1189,"Ġele":1190,"Ġnorth":1191,"ĠJu":1192,"ales":1193,"Ġhead":1194,"ient":1195,"Ġgovern":1196,"Ġgroup":1197,"raph":1198,"Ġcharacter":1199,"Ġbr":1200,"Ġgr":1201,"Ġed":1202,"Ġeach":1203,"Ġpoint":1204,"ĠSeptember":1205,"ĠAd":1206,"wards":1207,"Ġconsid":1208,"ution":1209,"ĠDe":1210,"ĠGerman":1211,"Ġfollowing":1212,"ĠWorld":1213,"Ġlife":1214,"Ġgu":1215,"ĠComm":1216,"ĠAll":1217,"ĠAustral":1218,"anc":1219,"Ġann":1220,"Ġcontro":1221,"ural":1222,"Ġfive":1223,"Ġvar":1224,"ys":1225,"ĠHer":1226,"ĠUS":1227,"Ġattack":1228,"ged":1229,"Ġ193":1230,"ording":1231,"Ġresult":1232,"Ġwill":1233,"ina":1234,"ck":1235,"ĠQ":1236,"Ġever":1237,"ĠPro":1238,"Ġ191":1239,"ĠEu":1240,"Ġlarge":1241,"ĠMe":1242,"ĠII":1243,"lish":1244,"ĠNorth":1245,"ling":1246,"Ġbook":1247,"Ġreport":1248,"ont":1249,"ague":1250,"ĠFran":1251,"ble":1252,"ĠFor":1253,"ox":1254,"aced":1255,"hel":1256,"ĠJune":1257,"Ġtit":1258,"ended":1259,"dom":1260,"ilt":1261,"ives":1262,"Ġ14":1263,"ats":1264,"Ġprom":1265,"eb":1266,"med":1267,"Ġweek":1268,"ately":1269,"aving":1270,"ored":1271,"Ġstr":1272,"ĠJan":1273,"Ġsince":1274,"ĠStates":1275,"Ġfinal":1276,"Ġmajor":1277,"ax":1278,"Ġsouth":1279,"Ġreceived":1280,"ĠSouth":1281,"ivision":1282,"ĠGu":1283,"Ġname":1284,"Ġpartic":1285,"ery":1286,"Ġhel":1287,"ology":1288,"ption":1289,"ĠChrist":1290,"Ġcare":1291,"ĠOct":1292,"Ġpublic":1293,"Ġrest":1294,"Ġsystem":1295,"ected":1296,"ility":1297,"ĠBe":1298,"ting":1299,"ĠKing":1300,"Ġstate":1301,"Ġbatt":1302,"ae":1303,"Ġwhat":1304,"ages":1305,"uary":1306,"Ġlast":1307,"rand":1308,"Ġdescribed":1309,"ĠOctober":1310,"Ġline":1311,"Ġclass":1312,"Ġ$":1313,"Ġdet":1314,"iving":1315,"raft":1316,"ĠNov":1317,"Ġplayed":1318,"Ġprot":1319,"Ġincre":1320,"aur":1321,"ropical":1322,"Ġtook":1323,"Ġmar":1324,"Ġnow":1325,"ified":1326,"aim":1327,"ĠPar":1328,"ional":1329,"get":1330,"rote":1331,"ants":1332,"ody":1333,"Ġ[":1334,"Ġ]":1335,"ively":1336,"ĠYork":1337,"Ġbuild":1338,"Ġworld":1339,"..":1340,"Ġlate":1341,"ĠDec":1342,"yc":1343,"Ġ25":1344,"ĠJuly":1345,"Ġwrote":1346,"empt":1347,"ball":1348,"by":1349,"esp":1350,"ĠEurop":1351,"ret":1352,"Ġwon":1353,"app":1354,"ideo":1355,"Ġspecies":1356,"sion":1357,"Ġchild":1358,"ians":1359,"Ġ...":1360,"omet":1361,"iod":1362,"Ġport":1363,"Ġmuch":1364,"ĠCan":1365,"ĠDuring":1366,"Ġconf":1367,"Ġserv":1368,"Ġcamp":1369,"ection":1370,"Ġref":1371,"Ġdue":1372,"ech":1373,"Ġshort":1374,"arn":1375,"Ġallow":1376,"Ġsingle":1377,"ĠApr":1378,"ĠApril":1379,"Ġdiffer":1380,"Ġjust":1381,"Ġdeath":1382,"ically":1383,"ract":1384,"Ġstar":1385,"Ġsl":1386,"Ġgun":1387,"ission":1388,"omin":1389,"ital":1390,"ĠMc":1391,"ĠAnd":1392,"Ġanother":1393,"Ġincluded":1394,"ĠMus":1395,"Ġposs":1396,"ai":1397,"Ġold":1398,"Ġtri":1399,"ham":1400,"Ġstorm":1401,"ĠGe":1402,"Ġvis":1403,"ĠJanuary":1404,"Ġ30":1405,"Ġlist":1406,"Ġleft":1407,"Ġeven":1408,"Ġpar":1409,"Ġwithin":1410,"ĠEngland":1411,"ple":1412,"Ġprog":1413,"Ġappro":1414,"ger":1415,"itions":1416,"Ġnamed":1417,"ops":1418,"Ġbased":1419,"Ġestab":1420,"Ġif":1421,"inc":1422,"Ġalthough":1423,"Ġattempt":1424,"Ġtop":1425,"ilar":1426,"Ġtrack":1427,"Ġvery":1428,"Ġbelie":1429,"Ġbre":1430,"Ġthird":1431,"ards":1432,"Ġhum":1433,"Ġwater":1434,"ĠMarch":1435,"ene":1436,"Ġgames":1437,"Ġorgan":1438,"ched":1439,"orp":1440,"ently":1441,"Ġbeg":1442,"Ġpower":1443,"Ġevent":1444,"Ġprevious":1445,"Ġfamily":1446,"Ġschool":1447,"ms":1448,"Ġbest":1449,"urric":1450,"ulation":1451,"ĠNovember":1452,"ances":1453,"Ġperiod":1454,"Ġreview":1455,"Ġway":1456,"ĠHis":1457,"Ġmen":1458,"aster":1459,"Ġexpl":1460,"Ġhome":1461,"ĠEurope":1462,"Ġfur":1463,"que":1464,"Ġgovernment":1465,"Ġtyp":1466,"ĠBy":1467,"ĠPh":1468,"ience":1469,"Ġturn":1470,"Ġ192":1471,"ĠDecember":1472,"let":1473,"ature":1474,"Ġcap":1475,"Ġthose":1476,"Ġhand":1477,"ĠThere":1478,"avy":1479,"Ġplace":1480,"ached":1481,"Ġmed":1482,"hest":1483,"ĠCity":1484,"Ġstory":1485,"oint":1486,"aged":1487,"Ġbuilt":1488,"eder":1489,"amb":1490,"Ġgreat":1491,"ense":1492,"Ġdr":1493,"ences":1494,"Ġperson":1495,"iven":1496,"Ġcommand":1497,"Ġ100":1498,"Ġkill":1499,"ĠFl":1500,"ĠWhen":1501,"oci":1502,"Ġmonth":1503,"Ġsent":1504,"itary":1505,"elt":1506,"Ġopp":1507,"Ġmake":1508,"Ġoriginal":1509,"iversity":1510,"oad":1511,"ĠÂ":1512,"Ġhal":1513,"Ġrequ":1514,"ves":1515,"ides":1516,"ĠPr":1517,"ĠNational":1518,"Ġeng":1519,"gy":1520,"ness":1521,"ention":1522,"Ġ2009":1523,"ĠOr":1524,"Ġ2010":1525,"Ġauth":1526,"Ġvideo":1527,"Ġ2008":1528,"bs":1529,"Ġant":1530,"ison":1531,"Ġmark":1532,"Ġdem":1533,"Ġsug":1534,"ruction":1535,"akes":1536,"Ġpresent":1537,"line":1538,"Ġleg":1539,"Ġclub":1540,"ĠMan":1541,"ĠRiver":1542,"rench":1543,"ival":1544,"Ġview":1545,"ĠBro":1546,"riend":1547,"oard":1548,"Ġrepl":1549,"ograph":1550,"Ġcapt":1551,"alk":1552,"Ġstill":1553,"Ġmoved":1554,"Ġlocal":1555,"Ġstand":1556,"eng":1557,"Ġled":1558,"Ġrole":1559,"ott":1560,"aining":1561,"ler":1562,"Ġterm":1563,"Ġcame":1564,"aken":1565,"Ġdest":1566,"Ġiss":1567,"ories":1568,"ung":1569,"side":1570,"idge":1571,"mp":1572,"Ġdra":1573,"Ġoften":1574,"Ġcommon":1575,"Ġaddition":1576,"Ġhistory":1577,"urricane":1578,"Ġcaus":1579,"lev":1580,"sh":1581,"ĠComp":1582,"atter":1583,"Ġtrad":1584,"rew":1585,"Ġfew":1586,"ĠNo":1587,"ĠWe":1588,"ĠChar":1589,"Ġsuggest":1590,"lu":1591,"read":1592,"ister":1593,"ĠAb":1594,"Ġ2007":1595,"Ġnext":1596,"Ġeffect":1597,"Ġconsidered":1598,"Ġbas":1599,"Ġdeb":1600,"Ġplayer":1601,"ĠOne":1602,"ior":1603,"Ġcour":1604,"astern":1605,"Ġmid":1606,"ĠTr":1607,"ĠEnglish":1608,"Ġhelp":1609,"ead":1610,"Ġexper":1611,"uted":1612,"ĠFrench":1613,"Ġcareer":1614,"Ġside":1615,"Ġsimilar":1616,"Ġrecorded":1617,"ĠBatt":1618,"ays":1619,"Ġright":1620,"ĠX":1621,"Ġwin":1622,"Ġinit":1623,"Ġimport":1624,"ĠAcc":1625,"Ġreal":1626,"self":1627,"ĠRec":1628,"Ġclaim":1629,"Ġcover":1630,"Ġarch":1631,"Ġcompany":1632,"be":1633,"ining":1634,"Ġtown":1635,"Ġpublished":1636,"Ġsold":1637,"Ġcontinued":1638,"Ġrefer":1639,"Ġexc":1640,"Ġwind":1641,"Ġdifferent":1642,"Ġyou":1643,"Ġtake":1644,"Ġwithout":1645,"ternational":1646,"Ġsongs":1647,"ĠWith":1648,"yn":1649,"Ġtot":1650,"ĠPer":1651,"ĠPort":1652,"Ġroad":1653,"Ġformer":1654,"Ġ21":1655,"Ġpolit":1656,"Ġtw":1657,"Ġtem":1658,"ĠBar":1659,"Ġheld":1660,"ches":1661,"ĠTe":1662,"Ġmemb":1663,"Ġamong":1664,"Ġlevel":1665,"Ġel":1666,"ĠWill":1667,"ning":1668,"Ġfield":1669,"Ġmag":1670,"par":1671,"Ġelect":1672,"ner":1673,"iment":1674,"Ġav":1675,"itar":1676,"Ġdel":1677,"uss":1678,"Ġprop":1679,"Ġwritten":1680,"inning":1681,"iter":1682,"resent":1683,"Ġevery":1684,"ĠAm":1685,"ĠState":1686,"estern":1687,"Ġ23":1688,"ĠEar":1689,"Ġcommun":1690,"Ġhalf":1691,"lear":1692,"yle":1693,"ĠDivision":1694,"ampions":1695,"Ġ2011":1696,"Ġrelease":1697,"ried":1698,"Ġfurther":1699,"ots":1700,"Ġbecome":1701,"Ġwest":1702,"Ġ2006":1703,"ensive":1704,"ĠAccording":1705,"Ġcr":1706,"enc":1707,"rodu":1708,"Ġchurch":1709,"ĠAlthough":1710,"Ġstrong":1711,"Ġfore":1712,"Ġhowever":1713,"Ġdays":1714,"roy":1715,"Ġfind":1716,"ĠCanad":1717,"Ġcur":1718,"ices":1719,"Ġeast":1720,"ising":1721,"ĠCount":1722,"Ġversion":1723,"Ġfoot":1724,"Ġbeh":1725,"Ġspe":1726,"augh":1727,"Ġparticular":1728,"ering":1729,"Ġ&":1730,"Ġmy":1731,"Ġlow":1732,"ĠChurch":1733,"ize":1734,"ebru":1735,"ĠGener":1736,"Ġprof":1737,"Ġcompet":1738,"Ġposition":1739,"Ġtitle":1740,"Ġ24":1741,"ĠWest":1742,"Ġmilitary":1743,"ĠRoman":1744,"Ġconv":1745,"Ġauthor":1746,"Ġ22":1747,"Ġ26":1748,"Ġappe":1749,"reen":1750,"Ġorder":1751,"ĠLeague":1752,"outher":1753,"Ġsol":1754,"ront":1755,"ittle":1756,"Ġcontrol":1757,"outhern":1758,"Ġtimes":1759,"ĠSong":1760,"aces":1761,"fric":1762,"Ġband":1763,"ĠFebru":1764,"ĠFebruary":1765,"Ġfre":1766,"pped":1767,"Ġless":1768,"Ġgave":1769,"Ġproject":1770,"Ġvict":1771,"Ġdefe":1772,"ylan":1773,"ĠGeor":1774,"osp":1775,"ĠAss":1776,"Ġ!":1777,"ĠDylan":1778,"Ġchang":1779,"Ġreported":1780,"Ġmembers":1781,"Ġnort":1782,"ĠPark":1783,"rick":1784,"Ġnov":1785,"Ġproduced":1786,"Ġstat":1787,"levision":1788,"Ġtotal":1789,"isc":1790,"arm":1791,"eter":1792,"hern":1793,"Ġ2012":1794,"aying":1795,"ĠOld":1796,"Ġarr":1797,"iety":1798,"Ġcult":1799,"Ġpopular":1800,"Ġter":1801,"Ġfire":1802,"esc":1803,"oung":1804,"ailed":1805,"Ġproduction":1806,"urs":1807,"apan":1808,"Ġobs":1809,"Ġtropical":1810,"hem":1811,"ĠSim":1812,"Ġ28":1813,"ĠPol":1814,"ression":1815,"Ġpost":1816,"Ġforces":1817,"ĠSte":1818,"Ġcritic":1819,"ford":1820,"ĠHa":1821,"ĠJapan":1822,"Ġchildren":1823,"Ġhistor":1824,"Ġpat":1825,"Ġhaving":1826,"ush":1827,"ĠEd":1828,"Ġinclude":1829,"ald":1830,"echn":1831,"ring":1832,"ours":1833,"Ġsurv":1834,"Ġinvol":1835,"Ġinflu":1836,"alion":1837,"ne":1838,"Ġsk":1839,"Ġlost":1840,"rent":1841,"Ġaff":1842,"atic":1843,"ĠSu":1844,"Ġgiven":1845,"Ġcountry":1846,"Ġwant":1847,"ably":1848,"Ġrepresent":1849,"work":1850,"ĠEl":1851,"Ġsignific":1852,"ĠCent":1853,"omen":1854,"ĠDav":1855,"Ġmanag":1856,"ope":1857,"ploy":1858,"ĠGeneral":1859,"Ġpress":1860,"Ġequ":1861,"vers":1862,"Ġ2013":1863,"ges":1864,"Ġeight":1865,"ĠMiss":1866,"Ġcomb":1867,"reet":1868,"Ġsit":1869,"Ġsite":1870,"ades":1871,"Ġseen":1872,"irc":1873,"Ġprogram":1874,"sp":1875,"ones":1876,"oon":1877,"Ġmaking":1878,"ĠAfric":1879,"Ġnever":1880,"Ġmatch":1881,"ration":1882,"Ġfem":1883,"Ġstated":1884,"Ġestabl":1885,"Ã¡":1886,"ither":1887,"Ġbody":1888,"Ġplan":1889,"Ġfact":1890,"Ġread":1891,"Ġord":1892,"Ġshould":1893,"ĠWhile":1894,"ĠEv":1895,"sequ":1896,"Ġ50":1897,"Ġreturned":1898,"fic":1899,"ator":1900,"ĠUniversity":1901,"ological":1902,"Ġsoc":1903,"Ġft":1904,"aun":1905,"Ġer":1906,"Ġsound":1907,"Ġ190":1908,"Äģ":1909,"rem":1910,"Ġhow":1911,"ape":1912,"ĠThese":1913,"Ġgen":1914,"Ġisland":1915,"ĠNe":1916,"ĠAmerica":1917,"Ġcou":1918,"Ġstruct":1919,"Ġearl":1920,"Ġships":1921,"Ġannoun":1922,"Ġestablished":1923,"ampionship":1924,"Ġgod":1925,"Ġground":1926,"ĠJack":1927,"Ġchart":1928,"Ġpopulation":1929,"aff":1930,"ream":1931,"Ġcat":1932,"Ġdiv":1933,"Ġreached":1934,"Ġjo":1935,"ground":1936,"Ġ27":1937,"na":1938,"view":1939,"reland":1940,"Ġlight":1941,"Ġnoted":1942,"aul":1943,"ki":1944,"Ġaway":1945,"Ġfriend":1946,"ĠIreland":1947,"ĠBlack":1948,"ille":1949,"igade":1950,"used":1951,"ument":1952,"ination":1953,"ffic":1954,"ese":1955,"Ġlim":1956,"oll":1957,"Ġthroughout":1958,"Ġacross":1959,"ĠReg":1960,"Ġdeveloped":1961,"Ġthought":1962,"iec":1963,"ĠMich":1964,"ĠLond":1965,"Ġseven":1966,"Ġsomet":1967,"Ġcast":1968,"aint":1969,"ords":1970,"ster":1971,"Ġgl":1972,"Ġproc":1973,"ĠWilliam":1974,"ĠLondon":1975,"Ġpra":1976,"Ġrad":1977,"Ġintrodu":1978,"af":1979,"Ġgood":1980,"ĠFeder":1981,"Ġusing":1982,"Ġhimself":1983,"Ġdevelopment":1984,"Ġblack":1985,"iness":1986,"omb":1987,"Ġhig":1988,"ĠHar":1989,"Ġfelt":1990,"idence":1991,"reek":1992,"ĠAustralia":1993,"Ġhuman":1994,"Ġsignificant":1995,"Ġide":1996,"ĠAir":1997,"utes":1998,"aren":1999,"Ġwat":2000,"Ġperformed":2001,"Ġbar":2002,"ump":2003,"Ġimportant":2004,"most":2005,"ivil":2006,"ĠGl":2007,"Ġadm":2008,"ĠAtl":2009,"itive":2010,"Ġnight":2011,"Ġwriting":2012,"Ġfun":2013,"ĠPal":2014,"ĠRich":2015,"ĠEx":2016,"Ġdestroy":2017,"Ġfather":2018,"ĠMag":2019,"Ġmiles":2020,"Ġbo":2021,"antic":2022,"Ġtelevision":2023,"ĠRoy":2024,"Ġinterest":2025,"Ġvarious":2026,"osaur":2027,"Ġareas":2028,"ief":2029,"Ġtour":2030,"imately":2031,"Ġwhite":2032,"Ġmodern":2033,"Ġfull":2034,"field":2035,"Ġten":2036,"Ġdied":2037,"ĠCal":2038,"Ġlook":2039,"rie":2040,"ogn":2041,"Ġenc":2042,"Ġactiv":2043,"ael":2044,"aign":2045,"Ġwent":2046,"Ġlaw":2047,"ĠRober":2048,"Ġneed":2049,"Ġtro":2050,"Ġevents":2051,"Ġprim":2052,"Ġdoes":2053,"Ġsuccessful":2054,"ĠRoad":2055,"ico":2056,"Ġred":2057,"ization":2058,"Ġdiscover":2059,"Ġplayers":2060,"Ġstarted":2061,"Ġmm":2062,"ĠTo":2063,"rab":2064,"ĠJames":2065,"Ġdecl":2066,"con":2067,"reg":2068,"Ġball":2069,"ript":2070,"Ġsee":2071,"iting":2072,"Ġhouse":2073,"Ġfeet":2074,"Ġformed":2075,"ks":2076,"Ġwid":2077,"ourn":2078,"Ġpoem":2079,"Ġtechn":2080,"Ġmix":2081,"Ġrange":2082,"ĠMount":2083,"Ġsett":2084,"Ġperformance":2085,"ĠCounty":2086,"rest":2087,"Ġput":2088,"Ġstyle":2089,"Ġvill":2090,"Ġrelations":2091,"Ġbuilding":2092,"Ġage":2093,"Ġsum":2094,"Ġtoo":2095,"Ġforce":2096,"abor":2097,"Ġcaused":2098,"ÃŃ":2099,"ana":2100,"Ġke":2101,"ino":2102,"epend":2103,"ara":2104,"ĠYou":2105,"alth":2106,"ĠKe":2107,"ublic":2108,"Ġsw":2109,"ened":2110,"ĠCro":2111,"Ġnovel":2112,"Ġpri":2113,"iers":2114,"isted":2115,"Ġ189":2116,"Ġcreated":2117,"Ġofficial":2118,"day":2119,"fall":2120,"idd":2121,"elling":2122,"asing":2123,"ĠSom":2124,"Ġ2004":2125,"ĠAng":2126,"ym":2127,"Ġpit":2128,"Ġ2005":2129,"Ġrelig":2130,"Ġentire":2131,"gr":2132,"less":2133,"Ġson":2134,"ality":2135,"eth":2136,"ĠOl":2137,"Ġable":2138,"Ġcoast":2139,"Ġpolitical":2140,"ĠHigh":2141,"ries":2142,"ressed":2143,"Ġcharacters":2144,"ĠSec":2145,"Ġste":2146,"inal":2147,"Ġget":2148,"ĠHam":2149,"Ġothers":2150,"Ġconstruction":2151,"Ġcert":2152,"Ġbird":2153,"Ġpred":2154,"Ġpromot":2155,"ases":2156,"Ġbattle":2157,"br":2158,"ĠTown":2159,"Ġnational":2160,"ways":2161,"acy":2162,"Ġoccur":2163,"oming":2164,"Ġval":2165,"ĠâĢĻ":2166,"Ġfig":2167,"ĠSw":2168,"ample":2169,"Ġlik":2170,"ament":2171,"Ġonce":2172,"ĠHist":2173,"play":2174,"ficult":2175,"Ġfac":2176,"Ġremained":2177,"por":2178,"ĠCare":2179,"ĠBra":2180,"Ġlocated":2181,"Ġmount":2182,"Ġtradition":2183,"enth":2184,"ivid":2185,"Ġrock":2186,"Ġscored":2187,"Ġworks":2188,"Ġdifficult":2189,"ĠKingdom":2190,"craft":2191,"Ġredu":2192,"Ġ31":2193,"Ġproduc":2194,"lected":2195,"ĠIsland":2196,"Ġcampaign":2197,"Ġguns":2198,"Ġtre":2199,"Ġcross":2200,"ĠCup":2201,"ĠMon":2202,"Ġstars":2203,"ĠGrand":2204,"Ġmeet":2205,"Ġcompleted":2206,"ĠAustralian":2207,"Ġannounced":2208,"Ġrank":2209,"Ġregion":2210,"Ġhold":2211,"ett":2212,"Ġsqu":2213,"orse":2214,"Ġnuc":2215,"ounc":2216,"off":2217,"itted":2218,"Ġgrow":2219,"Ġsuper":2220,"Ġcolle":2221,"Ġgoal":2222,"ĠCompany":2223,"ique":2224,"oid":2225,"Ġfav":2226,"arch":2227,"Ġlittle":2228,"Ġconn":2229,"umb":2230,"Ġlet":2231,"Ġprocess":2232,"ray":2233,"enced":2234,"Ġfight":2235,"Ġfront":2236,"aly":2237,"omp":2238,"rought":2239,"Ġinstead":2240,"ĠAct":2241,"ky":2242,"Ġcirc":2243,"Ġ29":2244,"Ġadded":2245,"here":2246,"leet":2247,"ĠMor":2248,"Ġcond":2249,"omm":2250,"Ġleast":2251,"duct":2252,"Ġfollowed":2253,"ĠBill":2254,"Ġknow":2255,"Ġpeak":2256,"Ġappeared":2257,"Ġborn":2258,"Ġkilled":2259,"Ġsouthern":2260,"angu":2261,"Ġoriginally":2262,"Ġmonths":2263,"oice":2264,"Ġwife":2265,"urb":2266,"Ġcomment":2267,"ĠArmy":2268,"Ġstri":2269,"ĠDavid":2270,"mar":2271,"Ġfif":2272,"Ġmother":2273,"Ġloss":2274,"ota":2275,"Ġ40":2276,"Ġstudy":2277,"ius":2278,"Ġhurricane":2279,"Ġassoci":2280,"Ġwomen":2281,"Ġcell":2282,"ects":2283,"ĠMusic":2284,"Ġident":2285,"Ġmass":2286,"ston":2287,"Ġeastern":2288,"Ġnon":2289,"Ġsex":2290,"antry":2291,"Ġagre":2292,"Ġrelationship":2293,"Ġaud":2294,"Ġaward":2295,"Ġ2003":2296,"Ġcritics":2297,"Ġbroad":2298,"ycl":2299,"Ġanim":2300,"Ġ185":2301,"Ġeventually":2302,"Ġfeatures":2303,"Ġprofess":2304,"olution":2305,"ĠGod":2306,"ĠOther":2307,"Ġvoc":2308,"Ġyoung":2309,"aper":2310,"Ġrecogn":2311,"Ġ2015":2312,"gin":2313,"ata":2314,"Ġbus":2315,"Ġlive":2316,"ements":2317,"ully":2318,"ĠFrance":2319,"Ġaver":2320,"Ġfourth":2321,"Ġtaken":2322,"ĠSer":2323,"emy":2324,"Ġroute":2325,"Ġestim":2326,"cher":2327,"ĠTwo":2328,"ĠBer":2329,"Ġserved":2330,"liam":2331,"ores":2332,"istic":2333,"ask":2334,"Ġcommer":2335,"Ġprote":2336,"illa":2337,"Ġappoint":2338,"ography":2339,"ze":2340,"ĠCo":2341,"omes":2342,"Ġlack":2343,"chie":2344,"Ġdecided":2345,"Ġdamage":2346,"ama":2347,"ĠMad":2348,"unk":2349,"Ġheavy":2350,"igned":2351,"azine":2352,"Ġcor":2353,"Ġbase":2354,"Ġeither":2355,"ĠIm":2356,"ĠBattalion":2357,"iation":2358,"Ġfar":2359,"Ġcondom":2360,"Ġproble":2361,"Ġsepar":2362,"Ġarm":2363,"Ġimpro":2364,"Ġinsp":2365,"val":2366,"ĠPart":2367,"ought":2368,"Ġspecial":2369,"Ġbehind":2370,"ĠRobert":2371,"Ġtoget":2372,"ica":2373,"ecut":2374,"ĠLove":2375,"Ġcoll":2376,"Ġindivid":2377,"Ġbelieved":2378,"Ġtogether":2379,"ida":2380,"Ġarg":2381,"Ġquar":2382,"ency":2383,"liament":2384,"ipp":2385,"aves":2386,"Ġclos":2387,"iction":2388,"ouncil":2389,"cial":2390,"Ġmater":2391,"rict":2392,"Ġplaying":2393,"ĠRoyal":2394,"ĠCarey":2395,"Ġburn":2396,"Ġdou":2397,"ĠRed":2398,"rap":2399,"aching":2400,"iol":2401,"iber":2402,"ĠMed":2403,"Ġmove":2404,"Ġir":2405,"Ġround":2406,"Ġcreat":2407,"Ġbi":2408,"Ġlangu":2409,"ĠHen":2410,"ĠDu":2411,"Ġvol":2412,"Ġdev":2413,"Ġexample":2414,"Ġclose":2415,"Ġaccept":2416,"ĠMex":2417,"gg":2418,"ĠSome":2419,"ĠMin":2420,"Ġalmost":2421,"Ġ188":2422,"alt":2423,"ests":2424,"Ġservice":2425,"Ġleading":2426,"ĠEuropean":2427,"Ġsour":2428,"Ġfall":2429,"ĠRep":2430,"odes":2431,"ĠWhite":2432,"Ġgenerally":2433,"ĠFederer":2434,"Ġsaw":2435,"ators":2436,"Ġce":2437,"Ġtowards":2438,"Ġopened":2439,"Ġelements":2440,"eal":2441,"Ġmiss":2442,"Ġ35":2443,"uter":2444,"oring":2445,"Ġbrought":2446,"ĠBrigade":2447,"Ġgeneral":2448,"Ġweeks":2449,"Ġmot":2450,"ĠPres":2451,"ceed":2452,"ĠWales":2453,"ĠGame":2454,"ĠInternational":2455,"Ġfinished":2456,"Ġdraw":2457,"Ġz":2458,"stit":2459,"Ġlaun":2460,"ĠFlor":2461,"Ġwall":2462,"Ġhost":2463,"oph":2464,"ĠKh":2465,"ĠViet":2466,"Ġregular":2467,"Ġhighway":2468,"Ġfeatured":2469,"cast":2470,"ĠIr":2471,"Ġcentral":2472,"Ġaircraft":2473,"lement":2474,"irl":2475,"ending":2476,"Ġindust":2477,"board":2478,"ĠEast":2479,"ordan":2480,"ounter":2481,"Ġresear":2482,"Ġreb":2483,"etwork":2484,"Ġcontract":2485,"Ġpoints":2486,"eum":2487,"Ġfund":2488,"Ġinform":2489,"Ġdirected":2490,"Ġ-":2491,"Ġaction":2492,"Ġmi":2493,"ĠMo":2494,"orts":2495,"Ġsuff":2496,"ĠChampionship":2497,"Ġmeas":2498,"Ġdirector":2499,"Ġprovided":2500,"hing":2501,"Ġcut":2502,"icated":2503,"Ġren":2504,"ĠBo":2505,"ĠFollow":2506,"ude":2507,"wood":2508,"Ġflood":2509,"Ġrespect":2510,"Ġnar":2511,"ĠJordan":2512,"Ġsequ":2513,"Ġupon":2514,"Ġmean":2515,"ential":2516,"ĠFrom":2517,"ĠGal":2518,"Ġappearance":2519,"ned":2520,"ĠJew":2521,"Ġyard":2522,"ellow":2523,"Ġ186":2524,"Ġearlier":2525,"sel":2526,"ying":2527,"atin":2528,"ĠPe":2529,"ĠRock":2530,"ĠEm":2531,"Ġking":2532,"Ġcost":2533,"ĠCr":2534,"Ġrather":2535,"ights":2536,"Ġ2014":2537,"Ġsubsequ":2538,"Ġfemale":2539,"ĠAtlantic":2540,"Ġtroops":2541,"tt":2542,"ĠÃ":2543,"Ġill":2544,"Ġreve":2545,"Ġstru":2546,"ĠOd":2547,"ishing":2548,"medi":2549,"ĠChristian":2550,"Ġcurrent":2551,"ĠMary":2552,"ĠOp":2553,"Ġve":2554,"Ġriver":2555,"Ġlargest":2556,"Ġtravel":2557,"Ġvictory":2558,"ĠFollowing":2559,"ĠHouse":2560,"ander":2561,"Ġemploy":2562,"Ġoperations":2563,"ĠHero":2564,"Ġparticularly":2565,"ĠGeorge":2566,"Ġmanager":2567,"Ġachie":2568,"erous":2569,"ouri":2570,"Ġprob":2571,"ule":2572,"Ġfort":2573,"Ġopening":2574,"Ġwanted":2575,"ving":2576,"Ġcop":2577,"Ġbur":2578,"Ġ500":2579,"ength":2580,"Ġnorthern":2581,"ault":2582,"ĠMac":2583,"ids":2584,"osition":2585,"Ġexist":2586,"Ġyards":2587,"Ġevidence":2588,"ĠPlay":2589,"áĥ":2590,"ita":2591,"Ġfoc":2592,"Ġreason":2593,"ĠSl":2594,"eler":2595,"Ġconduct":2596,"ĠPhil":2597,"ĠFlorida":2598,"ee":2599,"ih":2600,"of":2601,"yd":2602,"head":2603,"Ġmember":2604,"ĠWal":2605,"reng":2606,"Ġpract":2607,"uck":2608,"vest":2609,"Ġsaying":2610,"oms":2611,"ĠBay":2612,"ĠWil":2613,"anding":2614,"ĠStreet":2615,"Ġoutside":2616,"Ġcrew":2617,"Ġallowed":2618,"Ġpossible":2619,"Ġengine":2620,"co":2621,"west":2622,"atural":2623,"ĠMost":2624,"ĠPaul":2625,"Ġaccount":2626,"ĠOliv":2627,"uel":2628,"Ġpast":2629,"Ġmer":2630,"ĠMark":2631,"irth":2632,"Ġstage":2633,"Ġneg":2634,"ĠMcC":2635,"Ġhours":2636,"Ġwhom":2637,"Ġrespons":2638,"conom":2639,"Ġcase":2640,"ington":2641,"ago":2642,"artment":2643,"ĠMissouri":2644,"Ġmaterial":2645,"bor":2646,"ills":2647,"Ġ2001":2648,"Ġdesp":2649,"Ġworked":2650,"Ġregard":2651,"Ġfree":2652,"Ġmach":2653,"Ġlength":2654,"Ġnec":2655,"ĠBut":2656,"Ġgre":2657,"Ġstreng":2658,"Ġobject":2659,"Ġterrit":2660,"ĠTech":2661,"Ġgold":2662,"Ġplann":2663,"aps":2664,"Ġworking":2665,"Ġnomin":2666,"vert":2667,"ems":2668,"lus":2669,"ville":2670,"aries":2671,"ĠSan":2672,"Ġlove":2673,"Ġrul":2674,"Ġpoor":2675,"Ġquick":2676,"Ġdesigned":2677,"cent":2678,"now":2679,"uk":2680,"ari":2681,"ĠVir":2682,"ĠQu":2683,"Ġfootball":2684,"onst":2685,"Ġmult":2686,"Ġhon":2687,"urt":2688,"ĠBus":2689,"Ġlearn":2690,"ĠIndian":2691,"Ġconstruct":2692,"Ġpraised":2693,"ps":2694,"Ġesc":2695,"Ġtreat":2696,"ĠTor":2697,"ĠBest":2698,"Ġforced":2699,"Ġstation":2700,"ĠDay":2701,"ĠFirst":2702,"ession":2703,"Ġremains":2704,"Ġavail":2705,"rated":2706,"ites":2707,"iding":2708,"Ġviol":2709,"ĠVal":2710,"Ġ187":2711,"Ġgoals":2712,"Ġ1970":2713,"ĠMichael":2714,"uation":2715,"Ġthink":2716,"gypt":2717,"Ġwinds":2718,"heast":2719,"Ġcivil":2720,"ĠSm":2721,"ĠSqu":2722,"Ġabove":2723,"Ġdiss":2724,"Ġinvest":2725,"Ġincreased":2726,"Ġpers":2727,"ĠHel":2728,"ĠFe":2729,"ĠEgypt":2730,"hens":2731,"Ġpreviously":2732,"ĠÂ£":2733,"wh":2734,"itz":2735,"ĠDesp":2736,"ula":2737,"pper":2738,"ĠThom":2739,"Ġsoon":2740,"Ġreplaced":2741,"Ġcommercial":2742,"asion":2743,"ributed":2744,"ĠRichard":2745,"BC":2746,"gl":2747,"erved":2748,"Ġmust":2749,"ĠAc":2750,"ĠAg":2751,"ĠApp":2752,"Ġask":2753,"ĠGr":2754,"Ġinterview":2755,"Ġmaint":2756,"ĠSuper":2757,"Ġbusiness":2758,"onc":2759,"Ġclear":2760,"Ġpain":2761,"ste":2762,"olic":2763,"ĠWhe":2764,"ription":2765,"ĠDespite":2766,"ĠCorp":2767,"Ġly":2768,"ĠDep":2769,"osing":2770,"abit":2771,"Ġwriter":2772,"ĠQue":2773,"ĠBrown":2774,"Ġquarter":2775,"ming":2776,"Ġtrib":2777,"Ġthreat":2778,"ĠMont":2779,"Ġ2000":2780,"Ġunc":2781,"ĠÂ°":2782,"ĠHenry":2783,"AF":2784,"atory":2785,"ania":2786,"Ġmph":2787,"ĠOs":2788,"Ġunits":2789,"oney":2790,"ĠCanada":2791,"Ġestimated":2792,"Ã³":2793,"Ġpen":2794,"ulf":2795,"iff":2796,"aker":2797,"ibility":2798,"Ġ1990":2799,"Ġspecific":2800,"Ġcourt":2801,"ĠOldham":2802,"face":2803,"Ġpur":2804,"Ġreact":2805,"acing":2806,"Ġ36":2807,"Ġclaimed":2808,"ĠJapanese":2809,"Ġjoined":2810,"Ġhighest":2811,"band":2812,"men":2813,"ĠTimes":2814,"ulated":2815,"ching":2816,"Ġplaced":2817,"Ġcontr":2818,"ĠCarol":2819,"Ġinvolved":2820,"ecutive":2821,"ĠPresident":2822,"for":2823,"Ġwestern":2824,"Ġfly":2825,"ĠSun":2826,"ĠGovern":2827,"Ġpriv":2828,"Ġsigned":2829,"Ġsuggested":2830,"leg":2831,"ĠMos":2832,"elled":2833,"Ġ45":2834,"Ġ183":2835,"Ġparts":2836,"Ġsyn":2837,"ĠCard":2838,"ĠMy":2839,"ĠGold":2840,"Ġintens":2841,"ĠIndia":2842,"ĠOlivier":2843,"Ġtru":2844,"Ġhous":2845,"ĠSchool":2846,"thlet":2847,"ĠLater":2848,"Ġproper":2849,"Ġchange":2850,"Ġleague":2851,"Ġitself":2852,"ĠVietn":2853,"mb":2854,"Ġesp":2855,"Ġinj":2856,"Ġdon":2857,"ĠCong":2858,"ĠHall":2859,"Ġshot":2860,"Ġrap":2861,"anna":2862,"Ġaverage":2863,"ĠMexico":2864,"ĠIrish":2865,"Ġtaking":2866,"Ġhard":2867,"ĠNot":2868,"ume":2869,"Ġavailable":2870,"Ġey":2871,"urg":2872,"Ġexcept":2873,"Ġscene":2874,"ronic":2875,"Ġtransport":2876,"Ġtransfer":2877,"Ġbrother":2878,"Ġbreak":2879,"ready":2880,"Ġintroduced":2881,"Ġhit":2882,"ĠPac":2883,"Ġwhose":2884,"Ġheav":2885,"Ġrecording":2886,"Ġvillage":2887,"Ġwood":2888,"Ġstop":2889,"Ġrace":2890,"ĠStar":2891,"ĠVar":2892,"Ġsubject":2893,"Ġrail":2894,"porary":2895,"ĠThomas":2896,"go":2897,"rd":2898,"ximately":2899,"Ġslow":2900,"Ġ60":2901,"Ġphys":2902,"Ġgrad":2903,"Ġreligious":2904,"Ġfr":2905,"Ġmem":2906,"Ġnetwork":2907,"achel":2908,"Ġgra":2909,"Ġeduc":2910,"Ġtold":2911,"Ġnine":2912,"Ġnames":2913,"ĠNY":2914,"Ġabs":2915,"Ġremov":2916,"ĠBritain":2917,"Ġshows":2918,"Ġ1960":2919,"Ġdamaged":2920,"iqu":2921,"Ġtest":2922,"Ġcru":2923,"arily":2924,"Ġpiec":2925,"Ġindepend":2926,"ĠScient":2927,"Ġincreasing":2928,"Ġturned":2929,"Ġcapital":2930,"Ġsocial":2931,"ĠRepublic":2932,"gu":2933,"Ġap":2934,"oration":2935,"Ġcal":2936,"enes":2937,"Ġlines":2938,"Ġgive":2939,"ĠHurricane":2940,"ĠPo":2941,"ĠGreat":2942,"Ġchap":2943,"ĠThat":2944,"ĠGuitar":2945,"Ġstructure":2946,"aled":2947,"ĠMany":2948,"ĠAnt":2949,"Ġfeel":2950,"Ġnearly":2951,"Ġdeterm":2952,"Ġappointed":2953,"Ġdespite":2954,"Ġsize":2955,"Ġcycl":2956,"odies":2957,"ĠUnion":2958,"ĠZeal":2959,"Ġcomplet":2960,"Ġcommunity":2961,"hib":2962,"Ġ?":2963,"Ġbill":2964,"Ġinternational":2965,"Ġden":2966,"Ġdate":2967,"Ġliter":2968,"Ġeconom":2969,"ĠLa":2970,"ateg":2971,"rang":2972,"Ġ184":2973,"ĠArt":2974,"Ġsurround":2975,"Ġpassed":2976,"Ġfut":2977,"Ġmight":2978,"oul":2979,"ecially":2980,"irt":2981,"Ġwithd":2982,"rian":2983,"bert":2984,"hedral":2985,"Ġscore":2986,"Ġimmedi":2987,"inese":2988,"Ġoccup":2989,"Ġestablish":2990,"Ġdebut":2991,"Ġinitially":2992,"osaurus":2993,"Ġcertain":2994,"lict":2995,"Ġwinning":2996,"Ġcas":2997,"Ġpot":2998,"Ġtow":2999,"ĠMa":3000,"Ġalready":3001,"ĠEver":3002,"Ġdeal":3003,"Ġdisp":3004,"Ġassist":3005,"Ġgoing":3006,"Ġparticip":3007,"Ġarchae":3008,"ĠPacific":3009,"Ġfailed":3010,"ication":3011,"Ġstates":3012,"ĠChinese":3013,"ĠEarly":3014,"ĠZealand":3015,"fect":3016,"ha":3017,"ires":3018,"Ġmale":3019,"Ġdoc":3020,"ĠDon":3021,"rag":3022,"ĠJin":3023,"ability":3024,"Ġaccording":3025,"Ġrain":3026,"Ġtraining":3027,"Ġforest":3028,"Ġlanguage":3029,"Ġprobably":3030,"Ġespecially":3031,"den":3032,"Ġfood":3033,"ĠSing":3034,"ĠCath":3035,"ĠDr":3036,"Ġkey":3037,"Ġ2002":3038,"ification":3039,"Ġdepict":3040,"Ġminor":3041,"Ġissue":3042,"nel":3043,"Ġaut":3044,"Ġdaugh":3045,"ĠPri":3046,"ĠFilm":3047,"ĠLaw":3048,"Ġstudio":3049,"ĠIII":3050,"ĠTom":3051,"ady":3052,"Ġforward":3053,"ĠPeter":3054,"Ġspent":3055,"Ġincludes":3056,"ference":3057,"Ġarrived":3058,"Ġordered":3059,"ĠHistory":3060,"ĠWheeler":3061,"aut":3062,"ship":3063,"ises":3064,"ĠAwards":3065,"ĠSch":3066,"ilities":3067,"aval":3068,"Ġarmy":3069,"Ġenough":3070,"Ġremaining":3071,"Ġblock":3072,"Ġvisit":3073,"ĠCanadian":3074,"ĠAngel":3075,"stein":3076,"ties":3077,"onse":3078,"Ġfail":3079,"Ġdro":3080,"ĠNavy":3081,"Ġsometimes":3082,"Ġmixed":3083,"back":3084,"lor":3085,"zz":3086,"Ġdi":3087,"ĠTer":3088,"ĠSoc":3089,"owl":3090,"ĠRose":3091,"Ġcome":3092,"ĠUK":3093,"Ġcomplete":3094,"Ġapproximately":3095,"Ġreviews":3096,"Ġrequired":3097,"ĠAssoci":3098,"orial":3099,"Ġtouch":3100,"ĠCreek":3101,"Ġlower":3102,"Ġlatter":3103,"quar":3104,"ranch":3105,"rics":3106,"Ġimm":3107,"Ġcenter":3108,"to":3109,"ĠMer":3110,"ĠMet":3111,"lymp":3112,"ĠPenn":3113,"ĠInf":3114,"Ġremain":3115,"Ġbeginning":3116,"ĠAfrica":3117,"down":3118,"inct":3119,"inist":3120,"stant":3121,"ĠHol":3122,"ĠOlymp":3123,"ĠVirgin":3124,"Ġsem":3125,"Ġwoman":3126,"etic":3127,"ĠStud":3128,"Ġjourn":3129,"Ġdecision":3130,"Ġprevent":3131,"Ġlimited":3132,"iest":3133,"rack":3134,"under":3135,"Ġhapp":3136,"Ġdead":3137,"Ġ38":3138,"Ġusually":3139,"Ġbetter":3140,"Ġstudents":3141,"Ġadditional":3142,"Ġchanges":3143,"ĠRegiment":3144,"edy":3145,"Ġstay":3146,"ĠRout":3147,"ĠRachel":3148,"ĠNort":3149,"ĠJe":3150,"aby":3151,"Ġpresident":3152,"Ġemb":3153,"Ġrunning":3154,"Ġresponse":3155,"Ġsch":3156,"adron":3157,"Ġended":3158,"Ġpositive":3159,"Ġlarger":3160,"ĠScott":3161,"Ġconcern":3162,"gar":3163,"erat":3164,"Ġmention":3165,"ĠTV":3166,"ĠAward":3167,"Ġ80":3168,"Ġquest":3169,"Ġsupported":3170,"Ġtype":3171,"Ġmagazine":3172,"ios":3173,"uals":3174,"ĠFort":3175,"ĠJer":3176,"Ġnotes":3177,"Ġdepression":3178,"Ġpolice":3179,"ĠCharles":3180,"Ġpressure":3181,"Ġprior":3182,"oor":3183,"reak":3184,"Ġwide":3185,"Ġbirth":3186,"enty":3187,"Ġcompl":3188,"Ġamount":3189,"Ġbirds":3190,"Ġshown":3191,"Ġ1995":3192,"Ġrelated":3193,"ĠBillboard":3194,"Ġface":3195,"uments":3196,"Ġ75":3197,"Ġfeature":3198,"rief":3199,"Ġfifth":3200,"Ġfuture":3201,"rat":3202,"aring":3203,"ĠHot":3204,"ĠUnder":3205,"Ġappl":3206,"Ġ1980":3207,"Ġprovide":3208,"Ġdefeated":3209,"com":3210,"Ġche":3211,"ani":3212,"Ġder":3213,"ils":3214,"ĠCamp":3215,"ĠHill":3216,"Ġstaff":3217,"Ġanc":3218,"arts":3219,"Ġdiscovered":3220,"bers":3221,"Ġsat":3222,"Ġsil":3223,"Ġsection":3224,"ĠSy":3225,"ĠPat":3226,"ĠRes":3227,"ĠOper":3228,"ifa":3229,"Ġtemper":3230,"ĠRoute":3231,"hou":3232,"ney":3233,"Ġcm":3234,"enon":3235,"Ġdoll":3236,"ĠBel":3237,"ĠFI":3238,"ĠWestern":3239,"riage":3240,"ishop":3241,"Ġbecoming":3242,"ĠFrank":3243,"Ġfrequ":3244,"gely":3245,"oo":3246,"eding":3247,"Ġword":3248,"rael":3249,"ĠLight":3250,"ĠColle":3251,"ĠArab":3252,"ĠRh":3253,"ĠWood":3254,"ands":3255,"Ġvot":3256,"Ġexam":3257,"ector":3258,"oke":3259,"key":3260,"oys":3261,"Ġsmaller":3262,"uf":3263,"itte":3264,"Ġflow":3265,"Ġdomin":3266,"ĠTur":3267,"idents":3268,"unt":3269,"raw":3270,"Ġintended":3271,"Ġpercent":3272,"Ġscreen":3273,"Ġcolon":3274,"Ġgroups":3275,"Ġidea":3276,"ĠScientology":3277,"well":3278,"inent":3279,"Ġfir":3280,"Ġfleet":3281,"asy":3282,"iforn":3283,"ĠYear":3284,"Ġthemsel":3285,"Ġmostly":3286,"Ġmetres":3287,"Ġconclud":3288,"Ġdiscuss":3289,"ĠHaifa":3290,"Ġradio":3291,"Ġprofessional":3292,"Ġthemselves":3293,"gen":3294,"ses":3295,"era":3296,"anies":3297,"ĠRuss":3298,"ples":3299,"Ġ2016":3300,"Ġmusical":3301,"Ġsurface":3302,"Ġminutes":3303,"Ġcaptured":3304,"Ġreferred":3305,"ĠCroat":3306,"Ġlikely":3307,"uing":3308,"anish":3309,"ĠSince":3310,"ĠMil":3311,"imate":3312,"cean":3313,"ĠOver":3314,"iano":3315,"Ġoffice":3316,"Ġlargely":3317,"ĠParliament":3318,"Ġproblems":3319,"ĠAssociation":3320,"ror":3321,"Ġtry":3322,"Ġlab":3323,"Ġlink":3324,"ĠHow":3325,"rain":3326,"ĠUp":3327,"Ġund":3328,"Ġcontem":3329,"Ġindic":3330,"Ġentered":3331,"Ġmedia":3332,"ĠPortug":3333,"Ġsummer":3334,"quarters":3335,"iser":3336,"isions":3337,"Ġmakes":3338,"ĠSov":3339,"ĠNic":3340,"ĠOtt":3341,"Ġshoot":3342,"ĠVer":3343,"Ġens":3344,"orning":3345,"Ġmoving":3346,"ĠIsrael":3347,"ĠEarth":3348,"Ġobserv":3349,"Ġbroadcast":3350,"Ġself":3351,"Ġpair":3352,"Ġcontains":3353,"ĠCaliforn":3354,"Ġkeep":3355,"Ġconstructed":3356,"sen":3357,"Ġinn":3358,"Ġmoney":3359,"lex":3360,"ĠSam":3361,"ĠCouncil":3362,"ĠBey":3363,"Ġconcept":3364,"Ġvoice":3365,"ĠInter":3366,"Ġsea":3367,"Ġ1999":3368,"Ġparen":3369,"ĠSur":3370,"Ġnature":3371,"iva":3372,"ĠHaw":3373,"ĠRoss":3374,"ruit":3375,"Ġadop":3376,"ylv":3377,"Ġguitar":3378,"Ġeffects":3379,"Ġcele":3380,"ĠGalvest":3381,"ĠGalveston":3382,"kan":3383,"ergy":3384,"Ġstories":3385,"ĠChic":3386,"onym":3387,"Ġ1950":3388,"Ġgrant":3389,"Ġmajority":3390,"Ġlisted":3391,"Ġranked":3392,"ĠJewish":3393,"het":3394,"Ġconsist":3395,"Ġcreate":3396,"hester":3397,"Ġexperience":3398,"Ġresearch":3399,"ma":3400,"Ġcle":3401,"urity":3402,"Ġleaving":3403,"Ġuns":3404,"Ġ70":3405,"Ġmeth":3406,"ĠBrad":3407,"Ġcritical":3408,"Ġfavor":3409,"Ġschol":3410,"Ġbrief":3411,"Ġthus":3412,"ĠMart":3413,"owler":3414,"aven":3415,"Ġ33":3416,"ously":3417,"Ġscript":3418,"Ġearth":3419,"Ġcontroll":3420,"Ġprimary":3421,"eratops":3422,"pool":3423,"rison":3424,"oud":3425,"ĠServ":3426,"Ġlived":3427,"Ġalways":3428,"ership":3429,"Ġdeep":3430,"ĠAnother":3431,"Ġunderst":3432,"Ġfilms":3433,"Ġlocation":3434,"anks":3435,"Ġruns":3436,"Ġofficers":3437,"Ġgods":3438,"Ġagreed":3439,"Ġlyrics":3440,"Ġri":3441,"atively":3442,"change":3443,"teen":3444,"Ġrare":3445,"ospital":3446,"Ġlaunched":3447,"ĠCalifornia":3448,"dle":3449,"Ġcounter":3450,"Ġded":3451,"aches":3452,"ĠPet":3453,"illery":3454,"order":3455,"lands":3456,"Ġattract":3457,"Ġprem":3458,"Ġteams":3459,"Ġminute":3460,"Ġculture":3461,"Ġquickly":3462,"ĠCatholic":3463,"awn":3464,"ras":3465,"Ġx":3466,"Ġfans":3467,"ĠMr":3468,"ĠIf":3469,"ĠFore":3470,"ĠForm":3471,"Ġmeant":3472,"Ġamb":3473,"Ġepisodes":3474,"Ġproposed":3475,"Ġoccurred":3476,"ĠChicago":3477,"lo":3478,"oir":3479,"ĠSaint":3480,"Ġlo":3481,"imum":3482,"Ġwhether":3483,"Ġadapt":3484,"Ġ400":3485,"Ġassigned":3486,"Ġaccess":3487,"Ġincrease":3488,"AS":3489,"Ġcred":3490,"Ġdram":3491,"Ġhop":3492,"ĠTre":3493,"ĠBec":3494,"ĠLatin":3495,"umn":3496,"Ġ32":3497,"Ġpoet":3498,"Ġcann":3499,"Ġproduct":3500,"Ġforms":3501,"Ġtraffic":3502,"Ġappears":3503,"Ġdefeat":3504,"Ġchanged":3505,"Ġdestroyed":3506,"iant":3507,"Ġtons":3508,"Ġlog":3509,"ĠBen":3510,"Ġasp":3511,"ĠNix":3512,"Ġcommission":3513,"Ġtrade":3514,"ĠEnter":3515,"ĠArch":3516,"Ġlonger":3517,"ĠBattle":3518,"ĠCentral":3519,"Ġmeaning":3520,"mas":3521,"oned":3522,"Ġbound":3523,"anced":3524,"rol":3525,"Ġmom":3526,"ĠSever":3527,"ĠCamb":3528,"ĠMey":3529,"ĠHo":3530,"ortun":3531,"Ġran":3532,"ĠAlice":3533,"Ġjob":3534,"Ġtheme":3535,"Ġnumbers":3536,"Ġprinc":3537,"ĠScot":3538,"Ġ1940":3539,"undred":3540,"Ġsoldiers":3541,"Ġcompetition":3542,"Ġnucle":3543,"Ã³n":3544,"ex":3545,"Ġbomb":3546,"Ġreach":3547,"Ġgirl":3548,"thing":3549,"ĠDj":3550,"Ġkil":3551,"Ġleave":3552,"ĠItal":3553,"Ġnewsp":3554,"Ġacqu":3555,"Ġcarried":3556,"ĠTex":3557,"Ġawarded":3558,"Ġfocus":3559,"ĠNorthern":3560,"tar":3561,"Ġ300":3562,"Ġ1998":3563,"Ġconcert":3564,"Ġconsider":3565,"Ġconducted":3566,"Ġprivate":3567,"Ġdaughter":3568,"NA":3569,"ening":3570,"anas":3571,"rown":3572,"ĠTw":3573,"Ġnatural":3574,"ows":3575,"ĠJam":3576,"Ġoverall":3577,"Ġenv":3578,"Ġ90":3579,"Ġrecords":3580,"ĠSecond":3581,"Ġsubsequently":3582,"cing":3583,"itation":3584,"Ġcause":3585,"Ġtourn":3586,"ĠTra":3587,"Ġthick":3588,"Ġemer":3589,"ĠBC":3590,"imin":3591,"usband":3592,"ĠDel":3593,"ĠLiver":3594,"Ġdeg":3595,"Ġplans":3596,"ĠVilla":3597,"ĠAlkan":3598,"Ġdism":3599,"Ġ1930":3600,"Ġanti":3601,"Ġfighting":3602,"bar":3603,"ga":3604,"lin":3605,"Ġult":3606,"Ġtakes":3607,"Ġsus":3608,"eds":3609,"itor":3610,"itude":3611,"Ġbox":3612,"Ġrein":3613,"Ġlay":3614,"Ġgraph":3615,"Ġkind":3616,"ective":3617,"Ġwhole":3618,"Ġ1993":3619,"Ġelection":3620,"ĠPolish":3621,"Ġinfluence":3622,"Ġcommented":3623,"Ġdouble":3624,"Ġindustry":3625,"ken":3626,"Ġ+":3627,"ĠTay":3628,"ĠTour":3629,"ĠMinn":3630,"Ġserious":3631,"Ġfinally":3632,"Ġbring":3633,"Ġasked":3634,"ĠNixon":3635,"ĠLiverpool":3636,"Ġtar":3637,"Ġdig":3638,"Ġthrow":3639,"alled":3640,"Ġupper":3641,"Ġcompared":3642,"ĠIts":3643,"Ġjud":3644,"Ġcentre":3645,"Ġending":3646,"ĠGeorg":3647,"ĠSomers":3648,"stitute":3649,"Ġgreater":3650,"Ġmethod":3651,"ny":3652,"Ġpurch":3653,"Ġdone":3654,"Ġreject":3655,"ĠMal":3656,"ĠBack":3657,"olk":3658,"ĠLady":3659,"istics":3660,"ells":3661,"Ġunable":3662,"Ġ47":3663,"Ġflight":3664,"ologist":3665,"Ġpositions":3666,"Ġaccomp":3667,"itting":3668,"Ġmarried":3669,"ittee":3670,"ĠTexas":3671,"II":3672,"ging":3673,"Ġour":3674,"Ġbig":3675,"alys":3676,"ĠHum":3677,"ĠFoot":3678,"Ġ39":3679,"aily":3680,"Ġbuildings":3681,"Ġpersonal":3682,"Ġmarket":3683,"Ġstandard":3684,"ĠMosley":3685,"Ġrapid":3686,"ĠSomerset":3687,"ĠTropical":3688,"ĠSol":3689,"Ġgot":3690,"ĠRob":3691,"agon":3692,"Ġyet":3693,"ĠVict":3694,"Ġparty":3695,"Ġearned":3696,"Ġbooks":3697,"TV":3698,"Ġmor":3699,"Ġdark":3700,"ĠTenn":3701,"ĠCour":3702,"Ġliving":3703,"Ġhero":3704,"ĠOut":3705,"ĠThree":3706,"Ġ1996":3707,"Ġcollect":3708,"Ġphot":3709,"Ġconflict":3710,"Ġbegins":3711,"Ġissued":3712,"ĠBusch":3713,"car":3714,"Ġmur":3715,"Ġdom":3716,"ĠSal":3717,"ada":3718,"ĠBob":3719,"ĠFin":3720,"ĠLake":3721,"ria":3722,"Ġdirectly":3723,"Ġmarked":3724,"Ġterms":3725,"aught":3726,"Ġtraditional":3727,"house":3728,"Ġsal":3729,"umed":3730,"Ġhealth":3731,"Ġaband":3732,"Ġscenes":3733,"athan":3734,"Ġmovement":3735,"ĠSpanish":3736,"ĠChristmas":3737,"Ġmarriage":3738,"Ġstatus":3739,"ĠAfrican":3740,"ĠTaylor":3741,"rey":3742,"Ġpath":3743,"ĠFowler":3744,"bery":3745,"ĠCommand":3746,"Ġslight":3747,"Ġhelped":3748,"Ġfigure":3749,"ĠSeveral":3750,"rical":3751,"itch":3752,"Ġbatter":3753,"Ġpil":3754,"ĠCross":3755,"Ġnorm":3756,"adm":3757,"aded":3758,"ĠDem":3759,"ĠLou":3760,"odon":3761,"eway":3762,"ĠStorm":3763,"Ġsched":3764,"embly":3765,"Ġstarting":3766,"Ġattacks":3767,"Ġschools":3768,"Ġexperi":3769,"Ġinformation":3770,"Ġsuffered":3771,"Ġplanned":3772,"bury":3773,"anz":3774,"Ġhusband":3775,"Ġlif":3776,"ĠIll":3777,"Ġgiving":3778,"ĠNor":3779,"ĠJust":3780,"Ġrh":3781,"Ġperformances":3782,"Ġassociated":3783,"Ġinspired":3784,"Ġsource":3785,"ĠInfantry":3786,"ĠSoviet":3787,"ien":3788,"Ġdivision":3789,"cend":3790,"ĠJane":3791,"ify":3792,"Ġplot":3793,"Ġclosed":3794,"ounds":3795,"ibly":3796,"Ġtransl":3797,"ĠCont":3798,"Ġpresented":3799,"Ġinitial":3800,"Ġcondoms":3801,"ĠParty":3802,"Ġmachine":3803,"tation":3804,"atre":3805,"ican":3806,"ĠTrans":3807,"imb":3808,"ĠGo":3809,"Ġvia":3810,"ĠInn":3811,"Ġroom":3812,"Ġimage":3813,"Ġraised":3814,"Ġpresence":3815,"Ġpolic":3816,"Ġgreatest":3817,"ĠSeries":3818,"Ġeducation":3819,"ares":3820,"like":3821,"sylv":3822,"uff":3823,"erve":3824,"Ġfell":3825,"Ġinters":3826,"Ġpay":3827,"Ġhundred":3828,"ĠTem":3829,"ĠSix":3830,"ĠCast":3831,"olf":3832,"ĠLong":3833,"Ġchall":3834,"ections":3835,"Ġunit":3836,"Ġuses":3837,"Ġ42":3838,"Ġwriters":3839,"Ġcontinue":3840,"Ġnearby":3841,"ĠClub":3842,"ĠParis":3843,"orpor":3844,"ĠCarolina":3845,"Ġdocument":3846,"ĠPennsylv":3847,"ĠVirginia":3848,"Ġsusp":3849,"iated":3850,"rate":3851,"Ġpark":3852,"ĠRam":3853,"ĠLive":3854,"Ġprep":3855,"iami":3856,"Ġcomplex":3857,"Ġcovered":3858,"Ã¡n":3859,"Ġcollection":3860,"Ġcyclone":3861,"rid":3862,"Ġtalk":3863,"itect":3864,"Ġhabit":3865,"ĠMill":3866,"imony":3867,"Ġconver":3868,"essa":3869,"Ġspace":3870,"Ġcomposed":3871,"Ġenj":3872,"Ġweap":3873,"inner":3874,"Ġannual":3875,"Ġservices":3876,"ĠAcad":3877,"ĠQueen":3878,"ĠCollege":3879,"ĠMeyer":3880,"iny":3881,"Ġbodies":3882,"Ġreally":3883,"ether":3884,"ĠWater":3885,"Ġsev":3886,"Ġ1997":3887,"Ġnumerous":3888,"Ġmetal":3889,"Ġextended":3890,"Ġcommander":3891,"Ġcathedral":3892,"Ġwaters":3893,"Ġfigures":3894,"Ġproducer":3895,"Ġterritory":3896,"oncÃ©":3897,"ĠBeyoncÃ©":3898,"een":3899,"tain":3900,"Ġhot":3901,"Ġthings":3902,"ĠMiami":3903,"uries":3904,"ĠDan":3905,"ĠDam":3906,"ĠLo":3907,"ĠJose":3908,"anta":3909,"pted":3910,"ports":3911,"ĠGermany":3912,"ĠMuseum":3913,"Ġsomething":3914,"Ġvocals":3915,"Ġproteins":3916,"Ġindividual":3917,"ped":3918,"zy":3919,"ĠTheir":3920,"ĠGames":3921,"ĠNations":3922,"ipal":3923,"Ġ44":3924,"Ġfinanc":3925,"Ġartist":3926,"Ġoperation":3927,"ricket":3928,"Ġnecess":3929,"Ġinvestig":3930,"ev":3931,"uit":3932,"Ġtax":3933,"Ġsaf":3934,"Ġpick":3935,"Ġmorning":3936,"estival":3937,"ĠEr":3938,"apo":3939,"Ġcompanies":3940,"ĠThrough":3941,"Ġhighly":3942,"Ġimpact":3943,"Ġattacked":3944,"Ġdetail":3945,"Ġattempts":3946,"Ġrequest":3947,"ĠSomal":3948,"Ġstrength":3949,"ĠService":3950,"ding":3951,"pole":3952,"vement":3953,"Ġbad":3954,"ĠCer":3955,"ĠCrit":3956,"omer":3957,"ado":3958,"adium":3959,"ĠGar":3960,"Ġrecover":3961,"Ġdise":3962,"ribution":3963,"Ġvers":3964,"Ġinteract":3965,"Ġsymb":3966,"Ġartillery":3967,"Ġconfir":3968,"Ġspeed":3969,"Ġera":3970,"Ġimmediately":3971,"admium":3972,"ĠPennsylvania":3973,"track":3974,"atives":3975,"isation":3976,"isher":3977,"Ġpurs":3978,"Ġpiano":3979,"ĠAI":3980,"ĠCons":3981,"ĠMajor":3982,"Ġstone":3983,"ĠLi":3984,"Ġplat":3985,"Ġspir":3986,"Ġdistance":3987,"Ġallowing":3988,"Ġtracks":3989,"Ġpowerful":3990,"Ġsituation":3991,"ĠJackson":3992,"Ġnuclear":3993,"ĠSquadron":3994,"Ġremoved":3995,"Ġcelebr":3996,"Ġkilomet":3997,"hic":3998,"onna":3999,"Ġintern":4000,"andid":4001,"aging":4002,"Ġrate":4003,"Ġselected":4004,"Ġsearch":4005,"Ġkick":4006,"iple":4007,"Ġ51":4008,"Ġoffered":4009,"Ġsecret":4010,"Ġblood":4011,"Ġstudies":4012,"Ġinside":4013,"Ġadvance":4014,"Ġvariety":4015,"Ġfriends":4016,"Ġneeded":4017,"Ġpeaked":4018,"Ġsexual":4019,"Ġpurp":4020,"ĠScotland":4021,"ĠVictor":4022,"Ġmole":4023,"oura":4024,"ĠSir":4025,"Ġnative":4026,"ĠBet":4027,"ĠBoth":4028,"Ġstra":4029,"ĠRad":4030,"ĠLos":4031,"rial":4032,"Ġ182":4033,"izing":4034,"Ġprec":4035,"Ġtext":4036,"Ġ1991":4037,"Ġmeans":4038,"Ġcoach":4039,"ĠChris":4040,"Ġcountries":4041,"Ġheadquarters":4042,"Ġattempted":4043,"Ġcopies":4044,"ĠFootball":4045,"ãĥ":4046,"ims":4047,"ĠLand":4048,"Ġrule":4049,"ĠChina":4050,"Ġscoring":4051,"Ġadvant":4052,"Ġhands":4053,"Ġwidely":4054,"Ġrespectively":4055,"ĠOpen":4056,"Ġresponsible":4057,"Ġcasual":4058,"aen":4059,"hood":4060,"ware":4061,"alty":4062,"Ġmax":4063,"Ġhar":4064,"ĠAlex":4065,"Ġgrand":4066,"Ġang":4067,"send":4068,"annel":4069,"Ġsets":4070,"Ġextrem":4071,"Ġdescribes":4072,"Ġappearances":4073,"Ġcontrovers":4074,"ĠAnderson":4075,"Ġgenus":4076,"Ġhigher":4077,"ĠDepartment":4078,"Ġtouchdown":4079,"hew":4080,"ĠAre":4081,"iron":4082,"ĠPost":4083,"ĠOff":4084,"aped":4085,"ends":4086,"Ġcanc":4087,"Ġ1992":4088,"Ġlands":4089,"Ġconstit":4090,"Ġcourse":4091,"Ġmiddle":4092,"Ġmagn":4093,"Ġobserved":4094,"ĠBraat":4095,"ĠCorps":4096,"Ġheavily":4097,"MS":4098,"me":4099,"vin":4100,"Ġess":4101,"ĠTime":4102,"ĠBre":4103,"ĠNes":4104,"illed":4105,"Ġseem":4106,"ellig":4107,"Ġcompos":4108,"rane":4109,"Ġadult":4110,"Ġdisplay":4111,"Ġ1994":4112,"Ġrelief":4113,"ĠRev":4114,"Ġbelow":4115,"Ġsixth":4116,"shire":4117,"Ġadminist":4118,"Ġreduced":4119,"Ġmeeting":4120,"Ġxenon":4121,"Ġenjoy":4122,"light":4123,"esota":4124,"ĠMidd":4125,"ulations":4126,"ĠLike":4127,"umber":4128,"Ġ37":4129,"Ġ48":4130,"Ġjump":4131,"Ġ76":4132,"Ġactive":4133,"Ġblue":4134,"Ġsinger":4135,"Ġmatches":4136,"Ġresulted":4137,"Ġopportun":4138,"Ġaudience":4139,"force":4140,"Ġconcluded":4141,"ĠMinnesota":4142,"uated":4143,"Ġwing":4144,"Ġcorn":4145,"isk":4146,"Ġpaper":4147,"Ġhol":4148,"Ġhour":4149,"ĠCor":4150,"ĠCapt":4151,"ĠPit":4152,"ĠEmp":4153,"akapo":4154,"rance":4155,"Ġshell":4156,"Ġinstit":4157,"inkel":4158,"Ġactivity":4159,"Ġactivities":4160,"ĠSmith":4161,"Ġtrue":4162,"Ġcompletely":4163,"ris":4164,"Ġcer":4165,"isl":4166,"Ġbene":4167,"Ġpu":4168,"room":4169,"ĠSouthern":4170,"ĠBol":4171,"Ġstating":4172,"utch":4173,"ĠGreen":4174,"ĠJul":4175,"Ġdisapp":4176,"Ġmanaged":4177,"athus":4178,"ĠSea":4179,"ĠCenter":4180,"ĠTownsend":4181,"Ġrevealed":4182,"ĠRosebery":4183,"Ġquestion":4184,"Ġcontemporary":4185,"ĠHawai":4186,"ĠItalian":4187,"ĠMeyerbe":4188,"ipped":4189,"ãģ":4190,"Ġwound":4191,"ĠDist":4192,"ĠFur":4193,"ĠJim":4194,"ift":4195,"ĠKa":4196,"Ġquality":4197,"ervation":4198,"Ġrefused":4199,"Ġdrum":4200,"Ġlevels":4201,"Äģd":4202,"Ġdeclared":4203,"Ġtrees":4204,"Ġseparate":4205,"ĠNicole":4206,"ĠMeyerbeer":4207,"bed":4208,"bird":4209,"Ġpun":4210,"acher":4211,"ĠFinkel":4212,"ecting":4213,"ĠThunder":4214,"rowd":4215,"ĠConf":4216,"Ġbrown":4217,"ĠForce":4218,"Ġapproach":4219,"ĠWalpole":4220,"Ġcontrast":4221,"ĠBecause":4222,"ĠFinkelstein":4223,"ingu":4224,"Ġtoday":4225,"Ġdu":4226,"ĠTessa":4227,"stone":4228,"ĠCat":4229,"Ġlot":4230,"ĠDo":4231,"estic":4232,"Ġuniversity":4233,"peror":4234,"Ġrecent":4235,"ĠYue":4236,"Ġwebs":4237,"ĠShiva":4238,"Ġbackground":4239,"Ġreception":4240,"Ġ150":4241,"Ġfeaturing":4242,"Ġrespond":4243,"Ġcarry":4244,"Ġmodel":4245,"Ġtypically":4246,"Ġhistorical":4247,"Ġvocal":4248,"Ġparents":4249,"gal":4250,"hold":4251,"Ġwalk":4252,"itual":4253,"Ġchem":4254,"Ġpow":4255,"road":4256,"Ġhair":4257,"ĠSar":4258,"Ġnation":4259,"ĠPre":4260,"Ġbeat":4261,"ĠWild":4262,"Ġ52":4263,"Ġdispl":4264,"Ġplays":4265,"anger":4266,"orship":4267,"Ġactions":4268,"Ġpeace":4269,"Ġexpected":4270,"Ġemot":4271,"aha":4272,"ĠBlue":4273,"Ġissues":4274,"ĠCharl":4275,"Ġconditions":4276,"Ġvehic":4277,"ĠSociety":4278,"ĠOttoman":4279,"ĠIllino":4280,"FA":4281,"ka":4282,"Ġinh":4283,"Ġrear":4284,"iled":4285,"ĠBalt":4286,"ĠHal":4287,"ĠRo":4288,"ogue":4289,"Ġroy":4290,"Ġbecomes":4291,"Ġattention":4292,"Ġweaken":4293,"Ġassault":4294,"Ġmainly":4295,"Ġfamil":4296,"Ġefforts":4297,"ĠSpec":4298,"arent":4299,"Ġhouses":4300,"eption":4301,"Ġwear":4302,"Ġmel":4303,"Ġdraft":4304,"ĠTurn":4305,"ĠAv":4306,"usion":4307,"ĠDes":4308,"ĠOm":4309,"essions":4310,"Ġ34":4311,"Ġresidents":4312,"Ġoffer":4313,"ocks":4314,"Ġspecim":4315,"ype":4316,"Ġinstr":4317,"ĠAdam":4318,"ĠFranc":4319,"ĠHighway":4320,"Ġstrugg":4321,"ĠCourt":4322,"ĠBraathens":4323,"BA":4324,"bon":4325,"Ġathlet":4326,"Ġsense":4327,"ĠTod":4328,"ĠBurn":4329,"emic":4330,"oses":4331,"ocr":4332,"Ġrecomm":4333,"ĠArg":4334,"Ġactually":4335,"Ġcalling":4336,"Ġelev":4337,"Ġtitles":4338,"Ġdemonst":4339,"ĠHait":4340,"Ġsoundtrack":4341,"Ġprotein":4342,"ufact":4343,"onents":4344,"Ġsn":4345,"edo":4346,"Ġcrowd":4347,"enge":4348,"Ġboard":4349,"Ġthous":4350,"Ġaltern":4351,"ĠLittle":4352,"Ġroles":4353,"Ġpoly":4354,"Ġseasons":4355,"Ġwrite":4356,"Ġdefend":4357,"ledge":4358,"ĠJohnson":4359,"ĠColumb":4360,"ĠDef":4361,"Ġarchitect":4362,"Ġaccepted":4363,"Ġstruck":4364,"Ġachieved":4365,"ĠGovernment":4366,"ĠPortugues":4367,"Ġcannot":4368,"cript":4369,"iro":4370,"ply":4371,"Ġfruit":4372,"anes":4373,"ications":4374,"Ġthr":4375,"Ġnin":4376,"ĠMog":4377,"utions":4378,"ĠFam":4379,"ĠFey":4380,"ĠOf":4381,"pping":4382,"berg":4383,"ipl":4384,"Ġresc":4385,"Ġscient":4386,"ension":4387,"Ġtypes":4388,"Ġpractice":4389,"ĠVietnam":4390,"alysis":4391,"ĠPortuguese":4392,"wen":4393,"Ġrough":4394,"Ġcam":4395,"Ġfiction":4396,"roll":4397,"Ġdyn":4398,"Ġlb":4399,"ĠMat":4400,"anded":4401,"eller":4402,"irection":4403,"Ġ181":4404,"Ġscul":4405,"anning":4406,"Ġdistinct":4407,"Ġinfantry":4408,"ĠSpain":4409,"ĠAdd":4410,"echan":4411,"Ġavoid":4412,"Ġprimarily":4413,"ĠSecret":4414,"Ġsequence":4415,"ĠAcademy":4416,"Ġsales":4417,"ĠTint":4418,"iles":4419,"ĠCivil":4420,"ĠBook":4421,"ĠFer":4422,"ĠGroup":4423,"Ġplant":4424,"Ġspread":4425,"ĠYoung":4426,"ĠEngine":4427,"Ġ1986":4428,"Ġowned":4429,"Ġtwenty":4430,"Ġelected":4431,"Ġcombat":4432,"Ġslightly":4433,"met":4434,"Ġsister":4435,"ĠSarn":4436,"ĠHorse":4437,"use":4438,"ĠWels":4439,"Ġheart":4440,"ĠEs":4441,"Ġsuc":4442,"Ġsust":4443,"Ġsport":4444,"ograp":4445,"Ġinches":4446,"Ġscale":4447,"Ġoffensive":4448,"ĠAnn":4449,"Ġexpressed":4450,"Ġconcent":4451,"Ġextra":4452,"Ġcounty":4453,"ĠPrince":4454,"Ġrights":4455,"Ġnortheast":4456,"Ġaffected":4457,"ceeded":4458,"onymous":4459,"ĠLouis":4460,"ĠCaptain":4461,"AA":4462,"right":4463,"Ġsout":4464,"Ġwords":4465,"ora":4466,"Ġfarm":4467,"Ġple":4468,"Ġmis":4469,"ĠTri":4470,"ĠChe":4471,"ols":4472,"ushed":4473,"ĠDou":4474,"Ġ180":4475,"Ġneigh":4476,"ĠAtt":4477,"ĠReview":4478,"Ġshowed":4479,"Ġofficer":4480,"Ġprogress":4481,"ĠNesb":4482,"ĠTintin":4483,"ĠWelsh":4484,"mond":4485,"mitted":4486,"orus":4487,"Ġhy":4488,"ĠSil":4489,"ĠManc":4490,"igg":4491,"igan":4492,"astic":4493,"Ġability":4494,"ĠThough":4495,"Ġthemes":4496,"ĠZhou":4497,"ĠAdm":4498,"Ġbattalion":4499,"ĠAndrew":4500,"Ġexcav":4501,"Ġcombined":4502,"ĠVaranas":4503,"Ġnewspaper":4504,"ĠCeres":4505,"ironment":4506,"ĠEmpire":4507,"ĠVaranasi":4508,"ãĤ":4509,"rect":4510,"Ġmess":4511,"Ġhorse":4512,"ĠFred":4513,"ovic":4514,"Ġqual":4515,"ĠCommun":4516,"Ġtitled":4517,"Ġportray":4518,"Ġcultural":4519,"Ġsquare":4520,"ĠOdaen":4521,"ĠApple":4522,"Ġcasualties":4523,"ĠNesbitt":4524,"Ġsays":4525,"Ġox":4526,"ĠTru":4527,"Ġreign":4528,"ĠWay":4529,"aine":4530,"Ġ49":4531,"Ġremark":4532,"Ġproduce":4533,"Ġcontinues":4534,"Ġgrass":4535,"ĠEva":4536,"Ġearliest":4537,"Ġmountain":4538,"while":4539,"ĠAngeles":4540,"Ġmentioned":4541,"Ġancient":4542,"Ġmurder":4543,"Ġcerem":4544,"ĠIllinois":4545,"ĠOdaenathus":4546,"Mont":4547,"laim":4548,"nown":4549,"inus":4550,"enant":4551,"Ġfully":4552,"Ġmission":4553,"ented":4554,"ĠCra":4555,"ĠBoy":4556,"etts":4557,"ĠDirect":4558,"ĠWash":4559,"osen":4560,"ĠJos":4561,"oper":4562,"Ġchampionship":4563,"Ġmanufact":4564,"Ġactor":4565,"Ġprint":4566,"Ġartists":4567,"Ġresulting":4568,"orpedo":4569,"Ġ1920":4570,"ĠRecords":4571,"Ġauthorities":4572,"Ġinfluenced":4573,"ĠDuMont":4574,"Ġflooding":4575,"Ġnarrow":4576,"ĠOlympic":4577,"Ġadopted":4578,"Ġdisease":4579,"Ġadvantage":4580,"ĠMogad":4581,"ĠSarnia":4582,"Ġwild":4583,"ĠCap":4584,"Ġnest":4585,"ura":4586,"Ġspl":4587,"Ġ65":4588,"ĠColon":4589,"ĠProt":4590,"Ġreports":4591,"Ġlegal":4592,"Ġbasis":4593,"ĠPerÃ³n":4594,"Ġrepresented":4595,"lies":4596,"lings":4597,"mark":4598,"Ã¨":4599,"Ġsides":4600,"Ġcandid":4601,"Ġbott":4602,"asc":4603,"Ġtoward":4604,"Ġmile":4605,"ĠPop":4606,"Ġalone":4607,"ĠNC":4608,"Ġcoming":4609,"Ġexhib":4610,"ella":4611,"Ġapparent":4612,"Ġagg":4613,"ĠNews":4614,"Ġdefense":4615,"Ġbridge":4616,"helm":4617,"Ġbegin":4618,"Ġviewers":4619,"ĠWeek":4620,"Ġletters":4621,"Ġwithdraw":4622,"Ġtower":4623,"Ġtournament":4624,"ĠMiddle":4625,"ĠThunderbird":4626,"ĠManchester":4627,"bit":4628,"writ":4629,"Ġtorpedo":4630,"Ġdirection":4631,"Ġhun":4632,"ĠSR":4633,"ĠHome":4634,"ĠHorn":4635,"ĠFour":4636,"ĠLar":4637,"ĠOcean":4638,"Ġrat":4639,"Ġkakapo":4640,"Ġyellow":4641,"Ġarmed":4642,"Ġworkers":4643,"Ġrelatively":4644,"Ġfounded":4645,"Ġalongside":4646,"Ġoccasion":4647,"Ġeffort":4648,"ĠClark":4649,"Ġnorthwest":4650,"ancy":4651,"Ġillust":4652,"ĠWashington":4653,"aith":4654,"bour":4655,"lam":4656,"lers":4657,"Ġsac":4658,"Ġcadmium":4659,"ala":4660,"Ġmechan":4661,"Ġhors":4662,"Ġlosing":4663,"ĠMax":4664,"ulate":4665,"Ġrang":4666,"iana":4667,"Ġunivers":4668,"ĠVan":4669,"Ġcontain":4670,"Ġcontact":4671,"Ġadj":4672,"ricult":4673,"Ġattended":4674,"Ġemph":4675,"Ġ1988":4676,"Ġofficially":4677,"Ġedition":4678,"Ġtried":4679,"Ġorganized":4680,"Ġcapture":4681,"Ġindividuals":4682,"Ġtransferred":4683,"Ġphysical":4684,"lim":4685,"Ġáĥ":4686,"Ġast":4687,"ĠSum":4688,"ental":4689,"adel":4690,"ĠMass":4691,"ĠHu":4692,"Ġproved":4693,"abama":4694,"gend":4695,"Ġperman":4696,"ĠAlabama":4697,"Ġneut":4698,"Ġacting":4699,"prise":4700,"ĠMean":4701,"Ġrequire":4702,"Ġwinter":4703,"Ġbehav":4704,"Ġpattern":4705,"Ġofficials":4706,"Ġmeasure":4707,"Ġsurrounding":4708,"Ġrainfall":4709,"Ġdedicated":4710,"ĠJoseph":4711,"ĠOmaha":4712,"ĠMogadish":4713,"che":4714,"can":4715,"rong":4716,"uous":4717,"inem":4718,"Ġfeder":4719,"ĠSen":4720,"Ġlives":4721,"ĠMD":4722,"ĠBu":4723,"imore":4724,"ĠDest":4725,"ĠKent":4726,"Ġenergy":4727,"Ġ64":4728,"ĠArm":4729,"Ġdoing":4730,"Ġedge":4731,"ĠEdward":4732,"Ġcouple":4733,"ij":4734,"iate":4735,"onn":4736,"Ġwa":4737,"itness":4738,"Ġfolk":4739,"Ġmind":4740,"ĠFant":4741,"ĠGall":4742,"ĠLord":4743,"Ġchief":4744,"Ġshape":4745,"Ġ46":4746,"izes":4747,"ibr":4748,"Ġprepar":4749,"Ġfollows":4750,"azz":4751,"ĠIndepend":4752,"Ġdesignated":4753,"Ġshortly":4754,"Ġpossibly":4755,"ĠReception":4756,"Ġsociety":4757,"Ġdivided":4758,"Ġfunction":4759,"Ġdissip":4760,"ĠHelms":4761,"Ġintensity":4762,"ĠInnis":4763,"Ġfinancial":4764,"ĠMogadishu":4765,"RA":4766,"kare":4767,"Ġfaced":4768,"Ġborder":4769,"Ġpaid":4770,"ĠBh":4771,"ĠBowl":4772,"ĠPrem":4773,"ĠLis":4774,"ĠJourn":4775,"Ġyour":4776,"Ġyoun":4777,"Ġincorpor":4778,"Ġimages":4779,"Ġalbums":4780,"Ġrepe":4781,"Ġ1964":4782,"Ġsimply":4783,"Ġolder":4784,"Ġlegisl":4785,"ĠHistor":4786,"Ġletter":4787,"Ġsources":4788,"ĠWilhelm":4789,"ĠMcCall":4790,"Ġeye":4791,"Ġdetermined":4792,"Ġjournal":4793,"Ġmaximum":4794,"ĠArgent":4795,"VD":4796,"eer":4797,"ux":4798,"wide":4799,"Ġaid":4800,"inated":4801,"aling":4802,"Ġmaster":4803,"enture":4804,"Ġthir":4805,"Ġonto":4806,"ĠEnd":4807,"Ġcomedy":4808,"ĠKore":4809,"Ġplaces":4810,"ipment":4811,"Ġadvert":4812,"ugby":4813,"Ġmovie":4814,"Ġbroken":4815,"Ġportion":4816,"ĠAssembly":4817,"Ġkept":4818,"Ġdoub":4819,"Ġpiece":4820,"Ġpotential":4821,"Ġsculpt":4822,"Ġemphas":4823,"Station":4824,"Åį":4825,"Ġrom":4826,"edar":4827,"Ġcities":4828,"Ġfrag":4829,"Ġdut":4830,"Ġhom":4831,"ĠFleet":4832,"ĠJup":4833,"udd":4834,"duction":4835,"Ġcharge":4836,"ĠCommission":4837,"Ġargued":4838,"Ġiron":4839,"ĠPlayStation":4840,"Ġdomestic":4841,"Ġroyal":4842,"isters":4843,"lection":4844,"ĠBir":4845,"Ġge":4846,"Ġgrew":4847,"ety":4848,"Ġstep":4849,"ĠRih":4850,"ĠFA":4851,"ĠGood":4852,"ĠNight":4853,"agan":4854,"istry":4855,"ĠKn":4856,"asty":4857,"Ġspot":4858,"Ġunk":4859,"ĠVen":4860,"Ġcontent":4861,"Ġroll":4862,"Ġ53":4863,"Ġ55":4864,"Ġcolor":4865,"Ġdepth":4866,"ĠCommon":4867,"Ġsuggests":4868,"Ġauthority":4869,"Ġprojects":4870,"Ġmanagement":4871,"Ġsites":4872,"ĠHamels":4873,"ĠValley":4874,"ĠBaltimore":4875,"ĠRihanna":4876,"Ġsay":4877,"Ġsens":4878,"Ġwor":4879,"Ġwave":4880,"Ġfung":4881,"Ġpaint":4882,"Ġhomes":4883,"Ġhospital":4884,"ĠSky":4885,"acement":4886,"lys":4887,"Ġgained":4888,"ĠWrit":4889,"ĠGreek":4890,"umes":4891,"Ġshare":4892,"Ġscience":4893,"Ġattend":4894,"Ġweak":4895,"Ġprison":4896,"Ġmuseum":4897,"Ġentrance":4898,"ertain":4899,"Ġdepart":4900,"Ġartic":4901,"ĠConstant":4902,"Ġbelong":4903,"Ġphil":4904,"Ġcausing":4905,"Ġtwice":4906,"Ġcriticized":4907,"Ġstructures":4908,"ĠPalest":4909,"ĠDjed":4910,"Ġultimately":4911,"Ġtarget":4912,"Ġschedul":4913,"Ġwebsite":4914,"rative":4915,"Ġfres":4916,"Ġmouth":4917,"Ġhyd":4918,"ĠBig":4919,"ĠPen":4920,"ĠDVD":4921,"ĠLew":4922,"Ġvess":4923,"Ġdeploy":4924,"ĠUl":4925,"Ġcontaining":4926,"Ġintellig":4927,"ĠAnth":4928,"Ġformation":4929,"Ġinterp":4930,"Ġdefence":4931,"Ġresults":4932,"Ġdebuted":4933,"ĠForest":4934,"Ġdismiss":4935,"ĠJupiter":4936,"ĠDjedkare":4937,"gn":4938,"ya":4939,"yr":4940,"Ġtail":4941,"rel":4942,"ati":4943,"atur":4944,"orter":4945,"Ġcore":4946,"Ġcricket":4947,"Ġfast":4948,"ĠMore":4949,"ĠBur":4950,"ĠHib":4951,"Ġchosen":4952,"Ġkg":4953,"ĠUs":4954,"Ġ56":4955,"Ġremix":4956,"Ġdefensive":4957,"Ġopin":4958,"Ġminer":4959,"Ġ1947":4960,"Ġbattles":4961,"Ġforeign":4962,"Ġplanet":4963,"Ġcollabor":4964,"ĠTorres":4965,"Ġlabel":4966,"more":4967,"Ġfix":4968,"Ġinch":4969,"Ġpan":4970,"ĠLock":4971,"ĠJon":4972,"ĠEastern":4973,"ĠOx":4974,"ĠChap":4975,"ĠChild":4976,"Ġ43":4977,"Ġsecurity":4978,"Ġconsecutive":4979,"ĠShort":4980,"Ġenter":4981,"Ġ120":4982,"Ġbrigade":4983,"Ġprominent":4984,"Ġorganization":4985,"Ġstanding":4986,"Ġreference":4987,"Ġgrowing":4988,"Ġanimal":4989,"Ġburied":4990,"Ġindependent":4991,"Ġgranted":4992,"Ġrejected":4993,"Ġabandoned":4994,"ML":4995,"bl":4996,"then":4997,"Ã¼":4998,"Ġsand":4999,"Ġdiam":5000,"ĠField":5001,"ĠGre":5002,"Ġven":5003,"Ġseek":5004,"ocated":5005,"ĠOnce":5006,"Ġweight":5007,"Ġcolony":5008,"Ġdoct":5009,"Ġtherefore":5010,"Ġstudent":5011,"Ġ1941":5012,"Ġvisited":5013,"Ġclaims":5014,"Ġtemple":5015,"Ġorders":5016,"ĠAirport":5017,"Ġcondition":5018,"Ġcells":5019,"white":5020,"ĠScottish":5021,"ographer":5022,"ĠApplewhite":5023,"ees":5024,"mon":5025,"mosp":5026,"Ġmic":5027,"Ġdress":5028,"ĠSo":5029,"ĠSAF":5030,"ĠCre":5031,"ĠBon":5032,"ĠBBC":5033,"iring":5034,"ĠRA":5035,"ĠNorm":5036,"Ġrisk":5037,"Ġspect":5038,"phia":5039,"Ġnewly":5040,"Ġregions":5041,"Ġseconds":5042,"Ġsingles":5043,"Ġ1987":5044,"airs":5045,"Ġbroke":5046,"Ġmoment":5047,"Ġwounded":5048,"adelphia":5049,"ĠSAFE":5050,"ao":5051,"Ġtur":5052,"Ġahead":5053,"Ġcases":5054,"Ġfear":5055,"asters":5056,"oured":5057,"Ġreaching":5058,"Ġheight":5059,"resp":5060,"ĠInstitute":5061,"Ġseems":5062,"Ġenemy":5063,"ĠIndust":5064,"Ġsolo":5065,"ushing":5066,"Ġequipment":5067,"fficient":5068,"Ġknowledge":5069,"Ġidentified":5070,"Ġnominated":5071,"ĠEgyptian":5072,"Ġtemperature":5073,"ĠBackground":5074,"Ġversions":5075,"ners":5076,"tav":5077,"Ġtun":5078,"Ġaired":5079,"Ġcust":5080,"Ġcouncil":5081,"Ġbud":5082,"Ġmales":5083,"ading":5084,"ĠBan":5085,"ĠDue":5086,"ĠJur":5087,"Ġunique":5088,"Ġ41":5089,"Ġ1984":5090,"Ġ1989":5091,"Ġ1972":5092,"Ġreturning":5093,"Ġsupporting":5094,"Ġelement":5095,"ĠBefore":5096,"Ġcampus":5097,"Ġopposed":5098,"urban":5099,"Ġproblem":5100,"ĠCroatia":5101,"Ġenvironment":5102,"ĠFurther":5103,"Le":5104,"cy":5105,"mun":5106,"Ġtim":5107,"ero":5108,"Ġfired":5109,"Ġfox":5110,"ishes":5111,"ĠSub":5112,"ads":5113,"ĠMike":5114,"ette":5115,"oted":5116,"Ġatmosp":5117,"Ġanalysis":5118,"ĠEach":5119,"ĠKir":5120,"Ġunp":5121,"Ġ54":5122,"Ġperfect":5123,"Ġteacher":5124,"Ġ1985":5125,"Ġoperated":5126,"ĠCarl":5127,"ĠOrigin":5128,"Ġlooking":5129,"Ġincreasingly":5130,"Ġliterature":5131,"ĠOperation":5132,"Ġscholars":5133,"ĠEntertain":5134,"Ġstraight":5135,"Ġunknown":5136,"uct":5137,"Ġtheory":5138,"Ġboy":5139,"alle":5140,"stream":5141,"aming":5142,"Ġec":5143,"ĠMort":5144,"ĠId":5145,"ider":5146,"ĠHMS":5147,"ĠRy":5148,"ĠRet":5149,"Ġalter":5150,"Ġhere":5151,"ighth":5152,"ĠKar":5153,"Ġcompr":5154,"Ġweather":5155,"Ġwrites":5156,"Ġdefin":5157,"Ġacad":5158,"Ġbelieve":5159,"Ġbreeding":5160,"Ġexplained":5161,"Ġcommonly":5162,"ĠBarrow":5163,"Ġhistorian":5164,"Ġideas":5165,"Ġsettlement":5166,"ĠSwed":5167,"Ġburns":5168,"ĠCardiff":5169,"Ġconfirmed":5170,"Ġmolec":5171,"eg":5172,"uge":5173,"ych":5174,"Ġod":5175,"Ġoil":5176,"ato":5177,"ĠMic":5178,"Ġstations":5179,"ĠPublic":5180,"ĠNever":5181,"aved":5182,"ĠEven":5183,"Ġvo":5184,"ĠKey":5185,"ĠStan":5186,"ĠVill":5187,"Ġarrest":5188,"Ġherself":5189,"ĠOnly":5190,"Ġconsisted":5191,"Ġsinging":5192,"Ġ1944":5193,"Ġlandfall":5194,"ĠClass":5195,"Ġadvanced":5196,"ĠDevelop":5197,"Ġsystems":5198,"Ġparliament":5199,"Ġcriticism":5200,"Ġfemales":5201,"ĠMichigan":5202,"ĠKeats":5203,"Ġstrike":5204,"ĠPhiladelphia":5205,"Ġproperty":5206,"ĠCongress":5207,"Ġeconomic":5208,"Ġcontrolled":5209,"hu":5210,"ket":5211,"alions":5212,"Ġpict":5213,"asure":5214,"ĠHart":5215,"ĠRog":5216,"ĠGi":5217,"ĠGord":5218,"ĠLl":5219,"illo":5220,"Ġdeities":5221,"Ġimag":5222,"weet":5223,"awa":5224,"Ġexped":5225,"Ġcreation":5226,"Ġleader":5227,"Ġ130":5228,"ĠWilliams":5229,"ĠMounted":5230,"Ġgrowth":5231,"Ġmaintained":5232,"Ġpieces":5233,"Ġfailure":5234,"Ġdropped":5235,"Ġsemi":5236,"ĠAddition":5237,"ĠMeanwhile":5238,"Ġawards":5239,"inity":5240,"inary":5241,"ena":5242,"Ġfict":5243,"Ġmob":5244,"ĠAp":5245,"ĠMatt":5246,"ĠBas":5247,"Ġgar":5248,"ĠRos":5249,"ĠDen":5250,"ĠDutch":5251,"unic":5252,"rak":5253,"ĠGard":5254,"ĠLu":5255,"ĠLuc":5256,"Ġcompar":5257,"Ġarrang":5258,"Ġresemb":5259,"Ġ57":5260,"ĠAlbum":5261,"hips":5262,"Ġfilmed":5263,"ĠLeg":5264,"fully":5265,"Ġguest":5266,"Ġkilling":5267,"Ġfreeway":5268,"Ġpitched":5269,"Ġhonor":5270,"Ġflying":5271,"Ġinjury":5272,"Ġfederal":5273,"ias":5274,"Ã¶":5275,"Ġtact":5276,"Ġtask":5277,"onom":5278,"Ġsen":5279,"Ġbit":5280,"Ġmist":5281,"ĠBost":5282,"ĠDer":5283,"ĠDis":5284,"ĠDun":5285,"ĠGh":5286,"ĠNathan":5287,"antly":5288,"ieval":5289,"ĠItaly":5290,"Ġserve":5291,"ampion":5292,"Ġ600":5293,"Ġactress":5294,"Ġretired":5295,"ashion":5296,"Ġmatter":5297,"ĠGuard":5298,"Ġrestaur":5299,"ĠAndy":5300,"Ġbelief":5301,"Ġhumans":5302,"ĠAbu":5303,"Ġspeak":5304,"ĠSteve":5305,"Ġboats":5306,"Ġreligion":5307,"Ġpromoted":5308,"Ġvalue":5309,"Ġmounted":5310,"ĠMinister":5311,"lusion":5312,"ĠJeff":5313,"Ġrapidly":5314,"Ġbattery":5315,"Ġweapons":5316,"Ġhorses":5317,"cription":5318,"jo":5319,"kin":5320,"Ġut":5321,"Ġselling":5322,"Ġbid":5323,"Ġbank":5324,"roph":5325,"iced":5326,"Ġham":5327,"ĠAst":5328,"ĠCold":5329,"ĠMod":5330,"uli":5331,"ĠLes":5332,"ersey":5333,"ager":5334,"alls":5335,"ieut":5336,"Ġagricult":5337,"Ġflank":5338,"Ġcolumn":5339,"ĠAmericans":5340,"Ġdescription":5341,"Ġinvasion":5342,"ĠConference":5343,"Ġpasses":5344,"Ġpassing":5345,"Ġpublication":5346,"Ġprotest":5347,"Ġcougar":5348,"Ġsignificantly":5349,"Ġpromotion":5350,"Ġconnected":5351,"Ġrecognized":5352,"Ġcreating":5353,"Ġmultiple":5354,"Ġclean":5355,"Ġpremi":5356,"Ġaccompan":5357,"Ġprepared":5358,"cop":5359,"fort":5360,"han":5361,"haps":5362,"Äĩ":5363,"rete":5364,"render":5365,"Ġsought":5366,"itable":5367,"Ġbats":5368,"Ġmo":5369,"Ġdata":5370,"ĠMur":5371,"ĠMem":5372,"ĠFinal":5373,"ĠWat":5374,"ĠWork":5375,"ĠInst":5376,"Ġchose":5377,"ĠVideo":5378,"icks":5379,"amese":5380,"Ġstarts":5381,"Ġfamous":5382,"Ġdeliver":5383,"Ġpopularity":5384,"Ġproducers":5385,"chers":5386,"Ġvolume":5387,"Ġwalls":5388,"ĠSlam":5389,"Ġregarded":5390,"Ġstrengthen":5391,"Ġreaction":5392,"Ġsilver":5393,"Ġaspects":5394,"Ġnucleus":5395,"Ġseventh":5396,"Ġnecessary":5397,"Ġscheduled":5398,"ca":5399,"hi":5400,"load":5401,"yth":5402,"Ġdrop":5403,"Ġreform":5404,"ĠAri":5405,"ĠCole":5406,"Ġlaid":5407,"lying":5408,"olved":5409,"ote":5410,"Ġbeaut":5411,"ĠGulf":5412,"ĠLine":5413,"ĠLiber":5414,"Ġvirt":5415,"Ġrise":5416,"Ġrival":5417,"Ġsend":5418,"ogen":5419,"Ġnews":5420,"Ġ96":5421,"Ġ1981":5422,"Ġlanding":5423,"heless":5424,"Ġstrik":5425,"ĠVietnamese":5426,"Ġsustained":5427,"Ġphilos":5428,"hm":5429,"och":5430,"uan":5431,"Ġouter":5432,"Ġfat":5433,"Ġfought":5434,"Ġdated":5435,"ĠSund":5436,"standing":5437,"ĠMu":5438,"ĠHaven":5439,"ĠNaz":5440,"ĠObs":5441,"ifying":5442,"Ġspring":5443,"ips":5444,"ocked":5445,"venue":5446,"ĠAdv":5447,"ĠUSA":5448,"Ġreflect":5449,"ĠPho":5450,"Ġdrive":5451,"ĠAmong":5452,"Ġcastle":5453,"Ġcurrently":5454,"Ġemployed":5455,"ĠCambod":5456,"Äģda":5457,"Ġfamilies":5458,"ĠThunderbirds":5459,"Ġbudget":5460,"rum":5461,"yt":5462,"à¸":5463,"Ġtree":5464,"heastern":5465,"ini":5466,"onent":5467,"Ġsave":5468,"Ġpul":5469,"Ġmort":5470,"ĠAthlet":5471,"add":5472,"ivity":5473,"iments":5474,"ĠDomin":5475,"ĠGirl":5476,"Ġrating":5477,"Ġexec":5478,"Ġcontained":5479,"Ġarms":5480,"Ġrow":5481,"Ġ700":5482,"Ġunderground":5483,"orney":5484,"Ġends":5485,"ologists":5486,"hess":5487,"insula":5488,"Ġ179":5489,"Ġphase":5490,"Ġ1939":5491,"Ġtrial":5492,"Ġfacilities":5493,"Ġfrequently":5494,"ĠOxford":5495,"ĠEntertainment":5496,"TC":5497,"ii":5498,"lines":5499,"rig":5500,"sw":5501,"Ġwed":5502,"rog":5503,"Ġdial":5504,"ĠCa":5505,"Ġla":5506,"ĠHan":5507,"Ġbey":5508,"thur":5509,"ĠDar":5510,"unction":5511,"ĠFre":5512,"ĠFriend":5513,"ĠFestival":5514,"ĠGreg":5515,"ĠNH":5516,"ĠEll":5517,"Ġexecutive":5518,"sea":5519,"iance":5520,"aph":5521,"Ġunus":5522,"Ġcomputer":5523,"Ġcontributed":5524,"Ġarc":5525,"Ġprefer":5526,"Ġcollected":5527,"Ġactors":5528,"Ġexpress":5529,"Ġ1942":5530,"Ġsimple":5531,"Ġallows":5532,"Ġnegative":5533,"borough":5534,"ĠStudios":5535,"Ġdegree":5536,"ĠRevolution":5537,"Ġbottom":5538,"ĠGordon":5539,"iable":5540,"kins":5541,"ridge":5542,"Ġcited":5543,"Ġcraft":5544,"arian":5545,"Ġhor":5546,"ĠSus":5547,"ĠChel":5548,"ayer":5549,"ĠRail":5550,"unte":5551,"ĠNBA":5552,"Ġshaped":5553,"sey":5554,"ĠStep":5555,"Ġsports":5556,"Ġoverl":5557,"angers":5558,"Ġ61":5559,"Ġ73":5560,"Ġ95":5561,"Ġopera":5562,"Ġ1918":5563,"Ġeffective":5564,"Ġentirely":5565,"Ġanimals":5566,"ĠCoast":5567,"Ġimproved":5568,"Ġsubsequent":5569,"ĠBetween":5570,"ĠTurner":5571,"ĠCrazy":5572,"ĠPremier":5573,"Ġfictional":5574,"ieutenant":5575,"Ġbeyond":5576,"ez":5577,"iot":5578,"mission":5579,"Ã¤":5580,"arp":5581,"Ġmig":5582,"ĠBru":5583,"Ġgain":5584,"Ġgives":5585,"ĠRel":5586,"agement":5587,"Ġnotable":5588,"perial":5589,"Ġrecently":5590,"ĠAlf":5591,"Ġ62":5592,"Ġ97":5593,"Ġ800":5594,"ĠMario":5595,"Ġtrain":5596,"Ġ1968":5597,"Ġ1969":5598,"Ġextensive":5599,"ancing":5600,"ĠProv":5601,"Ġvisual":5602,"Ġmedical":5603,"Ġfinding":5604,"Ġmyth":5605,"Ġboat":5606,"Ġencoura":5607,"ĠBoise":5608,"Ġgradually":5609,"ĠTurk":5610,"ĠMartin":5611,"Ġkilometres":5612,"ĠToday":5613,"ĠLewis":5614,"ĠBoston":5615,"chen":5616,"iences":5617,"rine":5618,"Ġsail":5619,"atus":5620,"isy":5621,"Ġbass":5622,"rot":5623,"Ġdates":5624,"ĠCle":5625,"ĠCub":5626,"Ġegg":5627,"eck":5628,"lywood":5629,"ĠBart":5630,"Ġstages":5631,"ĠRod":5632,"ĠFox":5633,"ules":5634,"ĠJain":5635,"Ġchair":5636,"ĠKang":5637,"ĠUN":5638,"ĠStone":5639,"ĠHead":5640,"aret":5641,"Ġfinals":5642,"rence":5643,"Ġfloor":5644,"Ġmush":5645,"Ġsecondary":5646,"Ġsevere":5647,"Ġexpanded":5648,"Ġ1975":5649,"ĠBridge":5650,"Ġoccas":5651,"ĠJuan":5652,"ycle":5653,"Ġserving":5654,"Ġantimony":5655,"ĠBarb":5656,"Ġsurvey":5657,"Ġprograms":5658,"Ġglob":5659,"ĠCrown":5660,"ĠPeople":5661,"ĠSystem":5662,"ĠRussian":5663,"Ã¡nh":5664,"ĠDaniel":5665,"eed":5666,"iations":5667,"yson":5668,"eda":5669,"itan":5670,"Ġbow":5671,"Ġbul":5672,"lee":5673,"ĠAer":5674,"ĠIgu":5675,"Ġgreen":5676,"Ġitems":5677,"Ġcomes":5678,"opp":5679,"illing":5680,"Ġchur":5681,"usted":5682,"Ġunf":5683,"Ġcomposition":5684,"Ġarran":5685,"outs":5686,"Ġcenturies":5687,"Ġ72":5688,"Ġ85":5689,"ansas":5690,"Ġ1965":5691,"Ġ1974":5692,"ographic":5693,"Ġexclus":5694,"Ġfinds":5695,"ĠEvita":5696,"Ġjoin":5697,"ĠMagazine":5698,"Ġoccupied":5699,"ĠBelg":5700,"ĠUpon":5701,"set":5702,"thes":5703,"uate":5704,"erts":5705,"Ġfaith":5706,"Ġdaily":5707,"ompl":5708,"Ġnaval":5709,"ĠMen":5710,"ecess":5711,"ĠBand":5712,"ĠGab":5713,"ĠJac":5714,"ĠJud":5715,"izations":5716,"ublin":5717,"Ġdecades":5718,"Ġ81":5719,"Ġsole":5720,"ĠIsab":5721,"ĠCommander":5722,"Ġdeaths":5723,"Ġsuccessfully":5724,"Ġlosses":5725,"ĠKhÃ¡nh":5726,"ĠMacLe":5727,"Ġnegot":5728,"Ġtreatment":5729,"Ġslowly":5730,"Ġindependence":5731,"Ġcalc":5732,"Ġcommissioned":5733,"Ġexperienced":5734,"win":5735,"Ġaer":5736,"ĠAvenue":5737,"ĠCD":5738,"amy":5739,"Ġeth":5740,"ĠRome":5741,"ĠFar":5742,"istan":5743,"Ġ71":5744,"Ġ94":5745,"Ġflag":5746,"Ġcool":5747,"Ġ164":5748,"Ġdidn":5749,"ĠProject":5750,"Ġtrip":5751,"Ġpersonnel":5752,"Ġsentence":5753,"Ġengaged":5754,"Ġcaptain":5755,"ĠSongs":5756,"ĠJamal":5757,"Ġpurchased":5758,"Ġpolicy":5759,"ĠLiu":5760,"Ġbenef":5761,"aire":5762,"Å¡":5763,"Ġlabor":5764,"Ġeas":5765,"ĠMot":5766,"ĠBrian":5767,"Ġstreet":5768,"ĠPers":5769,"Ġbeach":5770,"ĠRol":5771,"ĠDublin":5772,"ĠGA":5773,"anda":5774,"ava":5775,"Ġchorus":5776,"Ġnothing":5777,"ĠChart":5778,"Ġaccompl":5779,"Ġcoal":5780,"anny":5781,"ĠSha":5782,"Ġsupply":5783,"ĠScience":5784,"Ġ160":5785,"Ġconcrete":5786,"Ġ1946":5787,"Ġsouthwest":5788,"Ġprotagon":5789,"Ġworldwide":5790,"Ġbegun":5791,"Ġelimin":5792,"Ġpropos":5793,"Ġdeclined":5794,"Ġreasons":5795,"ategory":5796,"Ġbriefly":5797,"ĠTennyson":5798,"ĠTemple":5799,"ĠThroughout":5800,"ĠDistrict":5801,"Ġfresh":5802,"ĠIguan":5803,"town":5804,"Ġtheat":5805,"aton":5806,"ingly":5807,"ela":5808,"Ġnor":5809,"ĠMov":5810,"ĠBull":5811,"Ġgas":5812,"iration":5813,"uting":5814,"utation":5815,"ĠDown":5816,"ĠIng":5817,"Ġincident":5818,"ĠAlso":5819,"Ġmoves":5820,"ĠLeon":5821,"pring":5822,"Ġleaders":5823,"Ġdrawn":5824,"ĠTrack":5825,"Ġimportance":5826,"Ġroads":5827,"ĠSimone":5828,"Ġsumm":5829,"Ġescape":5830,"ĠGovernor":5831,"Ġnormal":5832,"Ġplatform":5833,"bo":5834,"born":5835,"Ġ#":5836,"Ġtall":5837,"Ġtend":5838,"erc":5839,"onic":5840,"Ġwitness":5841,"Ġpet":5842,"Ġdance":5843,"Ġhired":5844,"amin":5845,"ĠBern":5846,"ĠBaby":5847,"ĠRay":5848,"Ġisol":5849,"ĠJes":5850,"Ġrac":5851,"Ġplum":5852,"quake":5853,"Ġspons":5854,"elli":5855,"rug":5856,"rupt":5857,"Ġdecade":5858,"ooking":5859,"ĠMaria":5860,"Ġflu":5861,"Ġfoundation":5862,"Ġlongest":5863,"Ġ1966":5864,"Ġ1952":5865,"Ġguard":5866,"Ġ1936":5867,"ĠProduction":5868,"Ġ1919":5869,"Ġpossibility":5870,"ĠBrook":5871,"ĠTeam":5872,"Ġdelay":5873,"Ġarrival":5874,"Ġchapter":5875,"Ġbillion":5876,"Ġparticipated":5877,"Ġfirm":5878,"Ġunsu":5879,"ĠArea":5880,"Ġenjoyed":5881,"Ġresponded":5882,"ĠFamily":5883,"Ġpaintings":5884,"respond":5885,"ĠDevelopment":5886,"Ġsenior":5887,"Ġaccompanied":5888,"ĠMacLeod":5889,"30":5890,"BS":5891,"ls":5892,"rons":5893,"isers":5894,"ĠBoard":5895,"Ġstret":5896,"ĠRow":5897,"ĠRox":5898,"ĠDream":5899,"ĠFive":5900,"osa":5901,"Ġheard":5902,"Ġring":5903,"ichol":5904,"ĠUlys":5905,"ĠChains":5906,"ĠAli":5907,"ĠAlbert":5908,"Ġjack":5909,"ĠMarl":5910,"Ġvert":5911,"Ġsubs":5912,"ifications":5913,"Ġsetting":5914,"Ġ110":5915,"Ġ177":5916,"Ġdeveloping":5917,"ĠDev":5918,"Ġoldest":5919,"Ġparalle":5920,"Äģn":5921,"ÃŃa":5922,"Ġsquad":5923,"Ġagreement":5924,"Ġdollar":5925,"hetic":5926,"Ġroughly":5927,"ĠAdmir":5928,"ĠSummer":5929,"ĠUlysses":5930,"OC":5931,"chest":5932,"oe":5933,"Ġi":5934,"ano":5935,"Ġpal":5936,"Ġdog":5937,"ĠTim":5938,"ĠBor":5939,"ĠBond":5940,"imet":5941,"ĠWall":5942,"ĠInt":5943,"Ġchoice":5944,"pty":5945,"essed":5946,"Ġ77":5947,"Ġremn":5948,"Ġconsists":5949,"Ġdecre":5950,"Ġaccident":5951,"Ġcalls":5952,"Ġtransit":5953,"Ġadding":5954,"Ġpopulations":5955,"Ġemp":5956,"Ġ1973":5957,"ĠConst":5958,"Ġlasted":5959,"espread":5960,"ĠPhill":5961,"Ġtowns":5962,"Ġcombination":5963,"Ġtechnology":5964,"Ġexistence":5965,"Ġregarding":5966,"Ġviolence":5967,"Ġdominated":5968,"Ġpoetry":5969,"Ġsymbol":5970,"ĠFrancisc":5971,"Ġathletes":5972,"ĠDougl":5973,"ĠAnthony":5974,"ĠInstead":5975,"ĠTurkish":5976,"aver":5977,"come":5978,"rant":5979,"war":5980,"Ġign":5981,"itors":5982,"Ġfellow":5983,"ĠSk":5984,"ĠTheatre":5985,"ĠBishop":5986,"usal":5987,"Ġaltar":5988,"Ġcomic":5989,"Ġseat":5990,"Ġnote":5991,"Ġcontrib":5992,"Ġreserv":5993,"Ġ59":5994,"ressive":5995,"Ġcommittee":5996,"ĠAnonymous":5997,"Ġundert":5998,"Ġfilming":5999,"Ġassass":6000,"Ġsubmar":6001,"Ġacres":6002,"Ġdoor":6003,"Ġtrav":6004,"Ġperforming":6005,"Ġ1967":6006,"ĠConn":6007,"ructure":6008,"ĠCarib":6009,"Ġclubs":6010,"Ġcompetitions":6011,"ĠBraz":6012,"Ġcollege":6013,"Ġassociation":6014,"Ġclosely":6015,"ĠOde":6016,"Ġexisting":6017,"Ġapplied":6018,"Ġhabitat":6019,"ĠRadio":6020,"Ġweakened":6021,"ĠHornung":6022,"Ġunsuccess":6023,"vens":6024,"Ġtrou":6025,"Ġtells":6026,"Ġfashion":6027,"isf":6028,"Ġps":6029,"ĠAston":6030,"ĠAML":6031,"iling":6032,"ĠBi":6033,"ĠLife":6034,"agre":6035,"agle":6036,"iston":6037,"ĠKenn":6038,"Ġreconst":6039,"Ġroof":6040,"Ġperhaps":6041,"Ġdescend":6042,"Ġ66":6043,"Ġ98":6044,"Ġtruth":6045,"ĠMarc":6046,"Ġneither":6047,"Ġsubstant":6048,"Ġ175":6049,"Ġdistingu":6050,"Ġprovides":6051,"Ġ1914":6052,"Ġbattalions":6053,"Ġserves":6054,"Ġcapable":6055,"Ġgreatly":6056,"Ġappeal":6057,"ĠMountain":6058,"Ġcorrect":6059,"Ġcorrespond":6060,"Ġlearned":6061,"Ġpainting":6062,"Ġarchaeological":6063,"Ġderived":6064,"Ġreinforce":6065,"Ġpilot":6066,"Ġdetails":6067,"Ġpurpose":6068,"Ġadministration":6069,"Ġopportunity":6070,"Ġceremony":6071,"Ġoccasionally":6072,"ĠCaribbe":6073,"OT":6074,"burg":6075,"var":6076,"ona":6077,"Ġsom":6078,"Ġsort":6079,"Ġfilled":6080,"Ġbought":6081,"Ġhyp":6082,"entially":6083,"Ġthing":6084,"Ġones":6085,"ĠHon":6086,"ĠDota":6087,"rait":6088,"ĠOh":6089,"Ġsufficient":6090,"ĠInc":6091,"ĠStew":6092,"ountain":6093,"Ġsupposed":6094,"Ġexpans":6095,"Ġreceiving":6096,"Ġinvited":6097,"Ġheaded":6098,"Ġeditor":6099,"Ġprotection":6100,"Ġstoryline":6101,"ĠBroad":6102,"Ġbasket":6103,"Ġspeaking":6104,"Ġskin":6105,"Ġencounter":6106,"Ġhousehold":6107,"Ġtechnique":6108,"Ġneck":6109,"Ġinnings":6110,"ĠArchae":6111,"Ġvehicles":6112,"Ġdissipated":6113,"ĠChelsea":6114,"Ġchurches":6115,"ĠDouglas":6116,"ĠCaribbean":6117,"GN":6118,"RE":6119,"VN":6120,"la":6121,"Ġaim":6122,"inj":6123,"oral":6124,"Ġcit":6125,"Ġcra":6126,"Ġcrop":6127,"Ġdrew":6128,"Ġhat":6129,"Ġeu":6130,"ĠMel":6131,"uri":6132,"ĠDet":6133,"ĠLow":6134,"ĠLieutenant":6135,"ĠJay":6136,"agn":6137,"ĠERA":6138,"Ġseg":6139,"abil":6140,"pton":6141,"ĠVol":6142,"Ġevac":6143,"ropri":6144,"ĠAsia":6145,"Ġacid":6146,"Ġgoes":6147,"Ġreceive":6148,"Ġ1945":6149,"Ġ1971":6150,"ĠWhat":6151,"Ġanything":6152,"Ġclassified":6153,"Ġtypical":6154,"Ġviewed":6155,"ĠAbout":6156,"ĠPerry":6157,"Ġsurvived":6158,"Ġislands":6159,"iece":6160,"Ġwidespread":6161,"idden":6162,"Ġmassive":6163,"Ġmotion":6164,"ĠCardinal":6165,"Ġstopped":6166,"ĠMaeda":6167,"Ġdrama":6168,"ĠGeorgian":6169,"Ġsoutheast":6170,"ĠFreder":6171,"Ġastron":6172,"ĠConstantine":6173,"ĠHibari":6174,"lik":6175,"rist":6176,"ruli":6177,"tty":6178,"ÅĤ":6179,"Ġopt":6180,"Ġfuel":6181,"ĠAge":6182,"ilton":6183,"Ġload":6184,"acity":6185,"ĠMTV":6186,"ola":6187,"ĠHin":6188,"ĠHard":6189,"ĠRun":6190,"ĠRio":6191,"ĠRÃ©":6192,"Ġwhy":6193,"ĠWind":6194,"opes":6195,"ighter":6196,"Ġcho":6197,"ĠKil":6198,"Ġshared":6199,"apes":6200,"iege":6201,"Ġrob":6202,"ĠYe":6203,"iously":6204,"Ġflights":6205,"Ġsubt":6206,"Ġsoft":6207,"anned":6208,"Ġ1982":6209,"Ġ176":6210,"Ġdistrict":6211,"ĠQedar":6212,"Ġ250":6213,"ĠPrinc":6214,"Ġauthors":6215,"Ġiniti":6216,"ĠRomani":6217,"ĠSimon":6218,"Ġsettlers":6219,"Ġmissing":6220,"glades":6221,"ĠGolden":6222,"Ġtrying":6223,"Ġacquired":6224,"Ġdigital":6225,"Ġconverted":6226,"Ġsafety":6227,"ĠFantasy":6228,"ibrary":6229,"Ġrepeated":6230,"cer":6231,"vis":6232,"Ġice":6233,"inosaur":6234,"Ġcab":6235,"Ġdub":6236,"stances":6237,"Ġlin":6238,"idges":6239,"ivered":6240,"ĠPatt":6241,"ĠGil":6242,"ĠGang":6243,"ĠGram":6244,"ĠJones":6245,"rier":6246,"iful":6247,"Ġrich":6248,"Ġchannel":6249,"Ġexact":6250,"ĠStadium":6251,"Ġspacing":6252,"Ġlegend":6253,"Ġroutes":6254,"mann":6255,"Ġfinish":6256,"ilding":6257,"issance":6258,"Ġlocations":6259,"Ġ1976":6260,"Ġ1956":6261,"Ġ1913":6262,"Ġ1916":6263,"Ġexperiment":6264,"reme":6265,"Ġglass":6266,"Ġwatched":6267,"Ġholding":6268,"Ġbaseball":6269,"Ġrebu":6270,"Ġfunding":6271,"ĠMoz":6272,"Ġfocused":6273,"Ġplanning":6274,"ĠOslo":6275,"Ġdepicted":6276,"ĠSurv":6277,"ĠHoly":6278,"Ġinstrument":6279,"ĠHaiti":6280,"Ġsucceeded":6281,"Ġpermanent":6282,"ĠVenus":6283,"Ġopinion":6284,"ĠShortly":6285,"Ġatmosphere":6286,"ĠPhoen":6287,"Ġwedding":6288,"Ġarranged":6289,"ĠIguanodon":6290,"ĠBrazil":6291,"Ġurban":6292,"Ġtable":6293,"Ġwick":6294,"Ġbowl":6295,"anth":6296,"Ġpack":6297,"Ġmut":6298,"ĠMah":6299,"ĠFel":6300,"ĠFire":6301,"ĠGra":6302,"ĠLenn":6303,"Ġchance":6304,"ĠKat":6305,"apers":6306,"Ġresident":6307,"Ġrose":6308,"Ġoverse":6309,"Ġknew":6310,"Ġdecline":6311,"ĠArts":6312,"oba":6313,"Ġcharter":6314,"Ġassemb":6315,"Ġdefined":6316,"Ġ112":6317,"Ġ1943":6318,"Ġrevolution":6319,"Ġproviding":6320,"ĠAllied":6321,"Ġprotect":6322,"Ġreality":6323,"ĠSimilar":6324,"Ġcreator":6325,"Ġpenalty":6326,"Ġearthquake":6327,"Ġrif":6328,"Ġcredited":6329,"ĠSecretary":6330,"LI":6331,"pass":6332,"Ġtied":6333,"Ġsun":6334,"Ġwins":6335,"Ġdating":6336,"ĠSnow":6337,"uration":6338,"ĠBul":6339,"ĠIGN":6340,"ĠHell":6341,"ĠHomer":6342,"ĠRangers":6343,"ĠGully":6344,"Ġrub":6345,"ĠChronic":6346,"Ġpregn":6347,"formation":6348,"Ġ87":6349,"Ġsupplies":6350,"Ġ1963":6351,"Ġdownload":6352,"Ã©t":6353,"Ġairport":6354,"Ġmoder":6355,"Ġheads":6356,"Ġways":6357,"Ġexplos":6358,"ĠAbb":6359,"Ġdelivered":6360,"ĠStevens":6361,"Ġlaws":6362,"Ġtechnical":6363,"ĠMorrison":6364,"Ġseparated":6365,"Ġrenamed":6366,"ĠEverglades":6367,"evo":6368,"Ġthousands":6369,"ĠAdditionally":6370,"ĠHindu":6371,"SB":6372,"crib":6373,"gÃ©":6374,"hat":6375,"min":6376,"Ġsan":6377,"Ġfair":6378,"Ġdry":6379,"ĠTop":6380,"ĠSound":6381,"ador":6382,"Ġgal":6383,"Ġrural":6384,"Ġselect":6385,"essing":6386,"ears":6387,"ĠUTC":6388,"ube":6389,"okes":6390,"Ġenl":6391,"Ġteaching":6392,"issipp":6393,"Ġsecure":6394,"attle":6395,"ĠArthur":6396,"Ġcolour":6397,"Ġregime":6398,"Ġemperor":6399,"ĠCommittee":6400,"ĠAustralians":6401,"Ġturning":6402,"Ġcommanded":6403,"Ġopposition":6404,"ivalent":6405,"Ġcourts":6406,"Ġsurviv":6407,"ĠMississipp":6408,"Ġcertified":6409,"ipping":6410,"ĠWalter":6411,"Ġeyes":6412,"Ġassistance":6413,"Ġremainder":6414,"ĠHollywood":6415,"Ġjourney":6416,"Ġindicate":6417,"Ġconsisting":6418,"ĠBradford":6419,"ĠAlexander":6420,"ĠOffice":6421,"Ġpowers":6422,"ĠColumbia":6423,"ĠTruj":6424,"ĠSunday":6425,"ĠFriends":6426,"oh":6427,"Ġaware":6428,"erted":6429,"rell":6430,"Ġcard":6431,"Ġpup":6432,"Ġdrug":6433,"Ġharm":6434,"ĠTel":6435,"ĠCop":6436,"Ġlit":6437,"Ġlov":6438,"ĠMul":6439,"ĠPu":6440,"ĠRon":6441,"ĠNative":6442,"estone":6443,"opher":6444,"Ġsud":6445,"ardo":6446,"aked":6447,"Ġimpr":6448,"Ġattached":6449,"ĠMarine":6450,"Ġquite":6451,"Ġhighlight":6452,"Ġnoisy":6453,"Ġsurrender":6454,"Ġaddress":6455,"Ġ1978":6456,"Ġdisturb":6457,"Ġoccurs":6458,"Ġ1953":6459,"Ġcamps":6460,"Ġturns":6461,"Ġviews":6462,"Ġreferences":6463,"Ġvalley":6464,"ĠMaryland":6465,"ĠMontana":6466,"Ġeconomy":6467,"Ġestablishment":6468,"ĠCroatian":6469,"ĠDemocr":6470,"ĠCritical":6471,"ĠDirector":6472,"Ġhydro":6473,"ĠTrujillo":6474,"dal":6475,"ients":6476,"nest":6477,"rin":6478,"ture":6479,"ĪĴ":6480,"Ġfan":6481,"Ġbranch":6482,"ĠSav":6483,"entions":6484,"ĠML":6485,"ĠMid":6486,"ĠMaster":6487,"othes":6488,"Ġstore":6489,"ĠDom":6490,"ĠFish":6491,"uma":6492,"agues":6493,"Ġpros":6494,"Ġvic":6495,"ewhere":6496,"ĠâĪĴ":6497,"Ġleaves":6498,"Ġresist":6499,"ĠAlan":6500,"Ġfinishing":6501,"ĠAnton":6502,"icted":6503,"Ġinterior":6504,"itsune":6505,"Ġmonarch":6506,"Ġstudied":6507,"Ġreputation":6508,"Ġleads":6509,"Ġdistribution":6510,"ception":6511,"Ġsuccessor":6512,"Ġreplace":6513,"ĠStef":6514,"ĠExp":6515,"Ġproducing":6516,"Ġcircum":6517,"Ġmissions":6518,"Ġdenied":6519,"Ġimmig":6520,"Ġshooting":6521,"Ġadapted":6522,"Ġmethods":6523,"Ġpuzz":6524,"ĠCharlie":6525,"ĠEngineer":6526,"Ġportrayed":6527,"ĠStephen":6528,"ĠRoxas":6529,"ĠMississippi":6530,"bur":6531,"break":6532,"iÄĩ":6533,"rations":6534,"Ã¸":6535,"real":6536,"Ġworth":6537,"Ġfranch":6538,"Ġbaby":6539,"ĠSap":6540,"Ġlic":6541,"Ġlane":6542,"ĠHug":6543,"ĠPress":6544,"ĠDi":6545,"ĠFlow":6546,"ĠNBC":6547,"rien":6548,"ĠEdu":6549,"aka":6550,"onder":6551,"Ġoffense":6552,"Ġprey":6553,"Ġupd":6554,"Ġ69":6555,"Ġgameplay":6556,"Ġentry":6557,"Ġentering":6558,"Ġobt":6559,"ĠPlunk":6560,"Ġcharacteristics":6561,"Ġ1915":6562,"Ġprotected":6563,"ĠRecording":6564,"Ġwindow":6565,"ĠWithin":6566,"Ġpolitics":6567,"Ġcrime":6568,"Ġgetting":6569,"ĠActivision":6570,"Ġmotor":6571,"Ġmaintain":6572,"ĠHoward":6573,"senal":6574,"ĠSamuel":6575,"Ġworst":6576,"Ġintelligence":6577,"Ġdismissed":6578,"aug":6579,"kh":6580,"ni":6581,"ns":6582,"Ġtell":6583,"inals":6584,"orer":6585,"orters":6586,"Ġcry":6587,"Ġcrown":6588,"Ġpound":6589,"Ġtomb":6590,"Ġdie":6591,"elve":6592,"amber":6593,"acent":6594,"otes":6595,"Ġstones":6596,"ĠRidge":6597,"ĠDNA":6598,"ĠWy":6599,"ĠLoc":6600,"ĠNether":6601,"ctions":6602,"Ġvon":6603,"Ġru":6604,"Ġexerc":6605,"ĠKel":6606,"Ġnoting":6607,"ender":6608,"Ġresour":6609,"Ġjoint":6610,"Ġattributed":6611,"Ġshel":6612,"Ġknots":6613,"ĠMarsh":6614,"Ġcharges":6615,"Ġretire":6616,"Ġmonument":6617,"Ġclasses":6618,"Ġcapacity":6619,"Ġbasin":6620,"Ġelectric":6621,"Ġnovels":6622,"Ġhistoric":6623,"ĠEliz":6624,"Ġcharts":6625,"Ġintroduction":6626,"Ġinterested":6627,"ĠCalvert":6628,"Ġholds":6629,"Ġdollars":6630,"Ġdiscussed":6631,"Ġphilosoph":6632,"Ġmushroom":6633,"ĠIsabella":6634,"eenth":6635,"gie":6636,"wise":6637,"Ġsector":6638,"itage":6639,"itled":6640,"Ġcinem":6641,"Ġfer":6642,"ĠTs":6643,"ĠTrib":6644,"ĠCam":6645,"ĠBos":6646,"ĠPope":6647,"ĠDanny":6648,"ĠWalk":6649,"osis":6650,"osure":6651,"ĠJersey":6652,"Ġvan":6653,"Ġvary":6654,"Ġvision":6655,"ĠStrand":6656,"Ġcontest":6657,"Ġagent":6658,"Ġoffers":6659,"ĠYank":6660,"angerous":6661,"Ġ74":6662,"Ġ79":6663,"aws":6664,"Ġ91":6665,"Ġpublisher":6666,"Ġsym":6667,"ajevo":6668,"Ġ1948":6669,"Ġdescribing":6670,"Ġgeneration":6671,"Ġappearing":6672,"Ġ1917":6673,"Ġmedieval":6674,"Ġfields":6675,"Ġsolid":6676,"Ġstatement":6677,"Ġ1890":6678,"Ġpitch":6679,"Ġcoastal":6680,"Ġpredecess":6681,"Ġaccounts":6682,"Ġruled":6683,"Ġrules":6684,"Ġtribes":6685,"Ġchapel":6686,"ĠResear":6687,"Ġcolonial":6688,"Ġrhyth":6689,"ĠSarajevo":6690,"ĠWeekly":6691,"ĠLisa":6692,"Ġyounger":6693,"ĠIndustry":6694,"bles":6695,"ef":6696,"gra":6697,"water":6698,"rets":6699,"Ġcaught":6700,"Ġbond":6701,"Ġinner":6702,"Ġhope":6703,"ĠSa":6704,"ĠSor":6705,"iders":6706,"ivals":6707,"ĠHere":6708,"ĠDaily":6709,"ĠWars":6710,"ĠJif":6711,"ateur":6712,"Ġplants":6713,"Ġkings":6714,"Ġunn":6715,"Ġarts":6716,"Ġmanner":6717,"Ġdesire":6718,"intend":6719,"Ġ88":6720,"Ġreleg":6721,"Ġsoil":6722,"Ġsomeone":6723,"Ġ1979":6724,"Ġinstruct":6725,"Ġ1951":6726,"ĠOrgan":6727,"engers":6728,"Ġbasic":6729,"Ġeverything":6730,"Ġdiscovery":6731,"Ġdifficulty":6732,"offman":6733,"Ġrecognition":6734,"Ġzone":6735,"Ġsynthes":6736,"Ġexception":6737,"Ġapart":6738,"Ġforests":6739,"ĠCampb":6740,"Ġrarely":6741,"Ġconsiderable":6742,"ĠVictoria":6743,"Ġemotional":6744,"Ġninth":6745,"ĠDestiny":6746,"Ġarticle":6747,"Ġrestaurant":6748,"Ġeurop":6749,"ĠFrederick":6750,"ĠYankovic":6751,"20":6752,"Ã§":6753,"Ġur":6754,"Ġtaught":6755,"Ġworship":6756,"Ġcold":6757,"ician":6758,"Ġmine":6759,"Ġmunic":6760,"Ġha":6761,"Ġhill":6762,"Ġhall":6763,"ĠAround":6764,"ĠChen":6765,"aments":6766,"Ġnob":6767,"Ġgall":6768,"igades":6769,"using":6770,"ĠRem":6771,"union":6772,"ĠFair":6773,"ĠElect":6774,"ĠInit":6775,"ables":6776,"abeth":6777,"Ġshore":6778,"ultane":6779,"Ġwealth":6780,"ĠLee":6781,"ĠJoe":6782,"Ġ121":6783,"Ġ1961":6784,"Ġlanded":6785,"Ġ1954":6786,"Ġevening":6787,"Ġopponents":6788,"Ġreplacement":6789,"ĠTelevision":6790,"Ġinvolvement":6791,"Ġsettle":6792,"graded":6793,"Ġvolunte":6794,"Ġnomination":6795,"Ġspecifically":6796,"Ġwooden":6797,"ĠTransport":6798,"Ġhotel":6799,"ĠSomali":6800,"ĠClarkson":6801,"Ġthirty":6802,"ĠRolling":6803,"ĠMozamb":6804,"Ġsudden":6805,"AC":6806,"Brien":6807,"eper":6808,"iÅ":6809,"iary":6810,"lan":6811,"yles":6812,"Ġtal":6813,"Ġtie":6814,"reets":6815,"atures":6816,"orous":6817,"Ġfish":6818,"Ġbal":6819,"ingale":6820,"leep":6821,"ĠAR":6822,"ĠSi":6823,"ĠSanta":6824,"ĠSpring":6825,"eless":6826,"Ġstream":6827,"verse":6828,"ceived":6829,"ĠDA":6830,"ĠFame":6831,"Ġconsequ":6832,"ĠLords":6833,"istol":6834,"avia":6835,"Ġleuk":6836,"Ġju":6837,"Ġjazz":6838,"ĠYan":6839,"ropol":6840,"Ġsecured":6841,"ĠAsh":6842,"Ġ99":6843,"Ġaccur":6844,"ĠLev":6845,"inking":6846,"Ġcarbon":6847,"Ġ1937":6848,"ĠMuslim":6849,"Ġbelieves":6850,"ĠOrder":6851,"Ġcommunities":6852,"ĠSimps":6853,"Ġdivine":6854,"ĠRoberts":6855,"Ġpoems":6856,"aska":6857,"ĠDuke":6858,"Ġindustrial":6859,"Ġveget":6860,"ĠSingles":6861,"ĠJerusal":6862,"Ġintersection":6863,"ĠCastle":6864,"Ġpicked":6865,"Ġcontroversy":6866,"ranean":6867,"ĠWilde":6868,"Ġrecommended":6869,"Ġsplit":6870,"ĠColonel":6871,"Ġfungus":6872,"ĠSkye":6873,"ĠBono":6874,"ĠModern":6875,"ĠFrancisco":6876,"ĠJifna":6877,"ĠSimpsons":6878,"ĠJerusalem":6879,"ban":6880,"rast":6881,"theless":6882,"va":6883,"á»":6884,"Ġic":6885,"Ġsed":6886,"Ġsoul":6887,"Ġwrong":6888,"Ġfit":6889,"Ġfaces":6890,"Ġdim":6891,"Ġdock":6892,"ĠCab":6893,"ĠCory":6894,"ussion":6895,"ĠRif":6896,"ĠDur":6897,"ĠWin":6898,"Ġconvers":6899,"ĠNap":6900,"ĠNick":6901,"ĠJun":6902,"agu":6903,"Ġvide":6904,"allow":6905,"ipe":6906,"Ġwhereas":6907,"ĠShak":6908,"rows":6909,"Ġdepend":6910,"Ġleadership":6911,"Ġsigning":6912,"ĠCarter":6913,"ĠPlot":6914,"Ġ1955":6915,"Ġstrateg":6916,"Ġorganizations":6917,"iveness":6918,"ĠPrime":6919,"Ġlegs":6920,"Ġstandards":6921,"ĠHamilton":6922,"Ġmissed":6923,"Ġdrawing":6924,"Ġlaunch":6925,"ĠÃĹ":6926,"Ġabsor":6927,"ĠOlympics":6928,"Ġconcerns":6929,"ĠMilitary":6930,"Ġscholar":6931,"Ġprincipal":6932,"ĠHuman":6933,"Ġextremely":6934,"Ġspecimens":6935,"ĠAdams":6936,"ĠIndependent":6937,"ĠArgentina":6938,"cape":6939,"ext":6940,"iar":6941,"pective":6942,"onica":6943,"rec":6944,"Ġske":6945,"Ġsession":6946,"Ġbes":6947,"Ġble":6948,"ĠAD":6949,"ĠSand":6950,"adow":6951,"iday":6952,"imal":6953,"ĠPan":6954,"ĠPul":6955,"ĠPower":6956,"Ġconference":6957,"Ġ1900":6958,"Ġexisted":6959,"Ġyouth":6960,"Ġparties":6961,"wealth":6962,"Ġteeth":6963,"ĠAnc":6964,"Ġ89":6965,"Ġmuscar":6966,"Ġindig":6967,"Ġminister":6968,"Ġshowing":6969,"iversary":6970,"Ġdistributed":6971,"Ġwarm":6972,"Ġ1958":6973,"ĠForces":6974,"ĠBeach":6975,"Ġtries":6976,"Ġapproached":6977,"Ġdemol":6978,"ĠEarl":6979,"Ġspeech":6980,"Ġconnection":6981,"Ġrelationships":6982,"Ġtreaty":6983,"Ġthreatened":6984,"Ġgrav":6985,"Ġsurrounded":6986,"Ġemerged":6987,"Ġchemical":6988,"ĠWriting":6989,"Ġdiameter":6990,"ĠBanai":6991,"Ġpsych":6992,"Ġeuropium":6993,"CA":6994,"bie":6995,"eor":6996,"nes":6997,"point":6998,"Ġib":6999,"edom":7000,"Ġoption":7001,"Ġwants":7002,"organ":7003,"itals":7004,"Ġcorp":7005,"Ġfal":7006,"Ġfle":7007,"inger":7008,"Ġpage":7009,"Ġmart":7010,"Ġrect":7011,"ĠCE":7012,"amm":7013,"ĠBank":7014,"ĠIV":7015,"ĠIron":7016,"ĠHung":7017,"Ġstem":7018,"utt":7019,"ĠPoint":7020,"ĠDisc":7021,"Ġalien":7022,"cho":7023,"ĠWW":7024,"Ġcong":7025,"uda":7026,"oca":7027,"Ġshark":7028,"ĠChief":7029,"Ġintention":7030,"Ġpartial":7031,"Ġoverw":7032,"Ġdecor":7033,"Ġdepartment":7034,"Ġ1949":7035,"Ġ1977":7036,"Ġbright":7037,"Ġpointed":7038,"aurus":7039,"Ġoppos":7040,"Ġhistorians":7041,"Ġadmitted":7042,"Ġseeing":7043,"Ġfacing":7044,"Ġcrossed":7045,"Ġregularly":7046,"ĠDepression":7047,"Ġrailway":7048,"Ġimmediate":7049,"Ġfiring":7050,"Ġfavorite":7051,"Ġhoped":7052,"Ġdocumentary":7053,"Ġconstitution":7054,"Ġinstitutions":7055,"Ġalternative":7056,"Ġlbw":7057,"Ġratings":7058,"ĠNorman":7059,"ĠRyan":7060,"ĠRoger":7061,"Ġexpedition":7062,"Ġunusual":7063,"Ġisolated":7064,"Ġexpansion":7065,"Ġcitiz":7066,"ĠLennon":7067,"ba":7068,"iour":7069,"ooth":7070,"sch":7071,"wich":7072,"zen":7073,"à¤":7074,"Ġsulf":7075,"Ġinland":7076,"ĠAld":7077,"Ġlap":7078,"Ġeighth":7079,"Ġgather":7080,"uses":7081,"usad":7082,"aya":7083,"ĠPerson":7084,"ĠDesc":7085,"eman":7086,"emia":7087,"ĠFern":7088,"ĠFras":7089,"ĠGoffman":7090,"Ġchampion":7091,"Ġrecre":7092,"ĠUnlike":7093,"formed":7094,"Ġconsum":7095,"Ġflo":7096,"Ġregional":7097,"Ġassumed":7098,"Ġ07":7099,"ledon":7100,"Ġowner":7101,"Ġdesignation":7102,"ossible":7103,"Ġanniversary":7104,"ĠHergÃ©":7105,"Ġprotests":7106,"Ġbreaking":7107,"Ġreviewer":7108,"Ġmarks":7109,"Ġstrongly":7110,"Ġchanging":7111,"spec":7112,"ombat":7113,"Ġwatch":7114,"Ġdestroyers":7115,"ÃŃvar":7116,"Ġtreated":7117,"Ġlanguages":7118,"Ġsequel":7119,"Ġliterary":7120,"ĠTerrit":7121,"Ġancest":7122,"ĠRhodes":7123,"Ġexamples":7124,"Ġbringing":7125,"ĠJaneiro":7126,"Ġwatershed":7127,"ĠBolÃŃvar":7128,"Ġinhabit":7129,"Ġmessage":7130,"Ġromantic":7131,"Ġduties":7132,"Ġprotagonist":7133,"ĠKilmer":7134,"Ġfranchise":7135,"ĠSaprang":7136,"nell":7137,"rates":7138,"worth":7139,"inet":7140,"erog":7141,"Ġsections":7142,"Ġwinner":7143,"ĠTest":7144,"ĠTower":7145,"sta":7146,"ĠMand":7147,"ĠBal":7148,"ĠBall":7149,"ĠBase":7150,"ĠBert":7151,"eton":7152,"otic":7153,"Ġstadium":7154,"ĠPA":7155,"ĠPine":7156,"ĠWimb":7157,"rapped":7158,"ĠLanc":7159,"Ġorchest":7160,"ockey":7161,"ĠKit":7162,"ĠStation":7163,"ĠStory":7164,"ĠStock":7165,"ogether":7166,"ĠHearts":7167,"Ġaged":7168,"Ġoutf":7169,"Ġ63":7170,"Ġ93":7171,"Ġmeets":7172,"Ġretreat":7173,"Ġindicated":7174,"Ġ06":7175,"ekÄģn":7176,"Ġ1983":7177,"Ġcrest":7178,"ĠGerard":7179,"Ġairline":7180,"ĠColor":7181,"Ġ1910":7182,"ĠGuy":7183,"Ġdetailed":7184,"Ġapproved":7185,"istered":7186,"encies":7187,"Ġgenre":7188,"Ġcoup":7189,"Ġimprove":7190,"Ġengineering":7191,"Ġgrey":7192,"ĠSquare":7193,"Ġcompletion":7194,"ĠLawton":7195,"ĠJean":7196,"Ġattracted":7197,"ĠBCE":7198,"ĠGeorgia":7199,"onnaissance":7200,"Ġwearing":7201,"Ġspecimen":7202,"ĠBurns":7203,"Ġrescue":7204,"ĠJournal":7205,"Ġacademic":7206,"Ġeggs":7207,"Ġeasily":7208,"ĠResearch":7209,"ĠWimbledon":7210,"how":7211,"know":7212,"ois":7213,"Ġsam":7214,"Ġsell":7215,"Ġocean":7216,"Ġcul":7217,"Ġbay":7218,"Ġpric":7219,"lets":7220,"ĠSher":7221,"ĠCru":7222,"ĠCook":7223,"ĠCorn":7224,"Ġlob":7225,"ĠBass":7226,"igation":7227,"Ġstreak":7228,"ĠRaj":7229,"ĠWolf":7230,"Ġconqu":7231,"osm":7232,"ĠNeb":7233,"aga":7234,"agas":7235,"ĠOffic":7236,"Ġproport":7237,"ppet":7238,"Ġshif":7239,"Ġspaces":7240,"oked":7241,"Ġcloud":7242,"range":7243,"ĠThird":7244,"Ġpreced":7245,"Ġflat":7246,"Ġaccused":7247,"Ġinterchange":7248,"Ġcoord":7249,"Ġacknow":7250,"Ġdepos":7251,"ĠConc":7252,"Ġimplement":7253,"Ġstarling":7254,"Ġattempting":7255,"Ġmedium":7256,"Ġterminus":7257,"Ġeffectively":7258,"ĠXe":7259,"Ġsurviving":7260,"Ġequal":7261,"Ġreading":7262,"Ġcatch":7263,"Ġlooked":7264,"Ġsettled":7265,"Ġinspiration":7266,"Ġtraveled":7267,"Ġpractices":7268,"Ġterritories":7269,"Ġcivilian":7270,"ĠRichardson":7271,"Ġfeeling":7272,"Ġassistant":7273,"Ġhappy":7274,"ĠCambridge":7275,"Ġrhym":7276,"Ġchallenge":7277,"ĠSomalia":7278,"ĠAttorney":7279,"Ġadjacent":7280,"Ġagricultural":7281,"Ġencouraged":7282,"Ġethn":7283,"ĠAdmiral":7284,"cation":7285,"dess":7286,"hl":7287,"mel":7288,"Ê»":7289,"Ġtick":7290,"heim":7291,"Ġsight":7292,"Ġswe":7293,"itated":7294,"ĠTam":7295,"ĠSb":7296,"Ġet":7297,"Ġnone":7298,"Ġnick":7299,"ĠBed":7300,"ĠHun":7301,"Ġstead":7302,"ĠPass":7303,"emet":7304,"ĠLab":7305,"ĠNow":7306,"Ġanth":7307,"Ġhear":7308,"ifer":7309,"Ġvac":7310,"Ġraces":7311,"Ġritual":7312,"ewhat":7313,"Ġchronic":7314,"Ġorn":7315,"abled":7316,"ĠKombat":7317,"Ġplain":7318,"Ġshots":7319,"Ġcompounds":7320,"Ġrecalled":7321,"Ġpartly":7322,"Ġserial":7323,"Ġevil":7324,"ĠAniston":7325,"aware":7326,"ĠMarg":7327,"Ġaccomm":7328,"Ġ05":7329,"Ġ122":7330,"ennis":7331,"Ġpossession":7332,"Ġvisible":7333,"Ġstands":7334,"attered":7335,"Ġconvoy":7336,"Ġpatron":7337,"Ġ1909":7338,"ĠKeamy":7339,"Ġidentity":7340,"Ġarmor":7341,"Ġ1880":7342,"Ġmulti":7343,"Ġpainted":7344,"Ġbrothers":7345,"going":7346,"Ġtowers":7347,"ĠEvery":7348,"ĠFormula":7349,"Ġchalleng":7350,"ĠGarc":7351,"Ġrecovered":7352,"Ġextreme":7353,"Ġseemed":7354,"Ġscientific":7355,"Ġcandidate":7356,"ĠCommonwealth":7357,"ĠMortal":7358,"Ġarrangement":7359,"ĠJesus":7360,"Ġsomewhat":7361,"Ġobtained":7362,"Ġvideos":7363,"Ġaccommod":7364,"SA":7365,"ds":7366,"ĠÅ":7367,"Ġtone":7368,"Ġtheatre":7369,"Ġcens":7370,"Ġcycle":7371,"isis":7372,"Ġbat":7373,"icate":7374,"icity":7375,"Ġhip":7376,"Ġhits":7377,"ĠTon":7378,"ĠType":7379,"entures":7380,"ĠBron":7381,"Ġgross":7382,"idae":7383,"igins":7384,"ĠHor":7385,"ĠHospital":7386,"utz":7387,"thosaurus":7388,"ĠGun":7389,"ĠJoy":7390,"ĠOwen":7391,"Ġproceed":7392,"Ġexha":7393,"oven":7394,"Ġ58":7395,"Ġschem":7396,"achus":7397,"Ġimpl":7398,"Ġteach":7399,"Ġconsult":7400,"ĠMarines":7401,"Ġrelative":7402,"Ġfled":7403,"Ġverse":7404,"Ġacts":7405,"Ġraid":7406,"annah":7407,"Ġ08":7408,"roscop":7409,"Ġpreserved":7410,"ĠJohnston":7411,"Ġestate":7412,"ĠIslam":7413,"Ġpassage":7414,"ĠGermans":7415,"Ġ1931":7416,"Ġ1935":7417,"Ġ1912":7418,"espe":7419,"Ġtwelve":7420,"Ġfootage":7421,"Ġconvin":7422,"ĠPoland":7423,"Ġreduce":7424,"ĠIslands":7425,"stitution":7426,"Ġhosted":7427,"Ġfunds":7428,"Ġsuffering":7429,"Ġabsol":7430,"iques":7431,"ĠFIA":7432,"ĠArabic":7433,"Ġlinked":7434,"Ġspirit":7435,"Ġcontroversial":7436,"ĠDesign":7437,"Ġsculpture":7438,"Ġcustom":7439,"Ġbasketball":7440,"ĠPlunketts":7441,"ĠElizabeth":7442,"ĠCorythosaurus":7443,"ĠFraser":7444,"ait":7445,"bishop":7446,"Ġtailed":7447,"Ġau":7448,"Ġsessions":7449,"Ġsiege":7450,"Ġwars":7451,"Ġcart":7452,"Ġinaug":7453,"Ġdivers":7454,"lete":7455,"ĠTig":7456,"illy":7457,"Ġthin":7458,"elin":7459,"amic":7460,"ĠBark":7461,"olay":7462,"uts":7463,"ĠDC":7464,"ĠDiv":7465,"ĠDyn":7466,"Ġalleg":7467,"ĠGib":7468,"ĠLate":7469,"ĠNintend":7470,"Ġprohib":7471,"Ġshut":7472,"Ġincome":7473,"Ġcontext":7474,"ĠYour":7475,"ensis":7476,"amps":7477,"Ġ68":7478,"Ġ86":7479,"Ġverte":7480,"Ġdefended":7481,"Ġmusc":7482,"ificial":7483,"ĠRele":7484,"Ġexpensive":7485,"athers":7486,"Ġcontinuing":7487,"Ġprovince":7488,"ĠAllah":7489,"Ġattacking":7490,"Ġ1932":7491,"ĠProf":7492,"Ġreviewers":7493,"Ġdestruction":7494,"Ġdebate":7495,"Ġequipped":7496,"ĠPalmy":7497,"Ġsteel":7498,"Ġcirculation":7499,"Ġresponsibility":7500,"Ġlearning":7501,"Ġblocks":7502,"Ġstayed":7503,"Ġconcerned":7504,"ĠHotel":7505,"Ġunderstand":7506,"Ġmoral":7507,"Ġcomposer":7508,"Ġadults":7509,"ĠSpecial":7510,"ĠProtest":7511,"Ġincorporated":7512,"ĠPeninsula":7513,"ĠMarlborough":7514,"Ġparallel":7515,"ĠShakespe":7516,"Ġopposite":7517,"erogative":7518,"ĠNintendo":7519,"ĠShakespeare":7520,"MO":7521,"body":7522,"nal":7523,"Ġtrick":7524,"Ġow":7525,"Ġpushed":7526,"Ġmap":7527,"ĠTechn":7528,"Ġrepr":7529,"ĠSem":7530,"ĠSweet":7531,"state":7532,"Ġgone":7533,"oli":7534,"iminal":7535,"uscript":7536,"ithic":7537,"ĠPict":7538,"ĠDark":7539,"osl":7540,"Ġansw":7541,"rif":7542,"aku":7543,"Ġkitsune":7544,"ĠUr":7545,"aste":7546,"ĠChannel":7547,"Ġreserve":7548,"Ġagree":7549,"arked":7550,"Ġpool":7551,"Ġsongwrit":7552,"Ġ82":7553,"ĠReal":7554,"Ġmusicians":7555,"Ġpassengers":7556,"ĠSpace":7557,"Ġgovernor":7558,"Ġwilling":7559,"Ġ1911":7560,"Ġclassical":7561,"ĠGeoff":7562,"Ġ1921":7563,"Ġ1929":7564,"Ġdriving":7565,"ĠFlight":7566,"Ġelabor":7567,"Ġlowest":7568,"Ġvictims":7569,"Ġpatrol":7570,"Ġlimit":7571,"ĠPalace":7572,"Ġpromote":7573,"Ġcrossing":7574,"Ġmeetings":7575,"Ġstrip":7576,"ĠMedia":7577,"Ġfalling":7578,"Ġrebels":7579,"Ġmeasures":7580,"Ġrenew":7581,"ĠFei":7582,"ĠLawrence":7583,"ĠPatrick":7584,"Ġvoted":7585,"Ġobservations":7586,"Ġthrowing":7587,"hews":7588,"ĠPitman":7589,"iplom":7590,"ĠStanley":7591,"Ġoccasions":7592,"Ġremnants":7593,"ĠConstruction":7594,"Ġinitiative":7595,"ĠNetherlands":7596,"AT":7597,"fare":7598,"hol":7599,"pent":7600,"rating":7601,"uv":7602,"vention":7603,"yard":7604,"ĠÎ":7605,"onia":7606,"Ġster":7607,"Ġbrick":7608,"Ġdiet":7609,"Ġhang":7610,"ĠTreat":7611,"ĠAk":7612,"eline":7613,"acle":7614,"otal":7615,"otton":7616,"ĠHob":7617,"ĠRain":7618,"ĠFree":7619,"ĠWic":7620,"ĠLink":7621,"ĠLabor":7622,"ĠOur":7623,"Ġcomments":7624,"Ġprol":7625,"ifies":7626,"Ġray":7627,"Ġrum":7628,"Ġsees":7629,"oceratops":7630,"Ġretained":7631,"Ġacclaim":7632,"Ġraise":7633,"Ġdefences":7634,"Ġ161":7635,"Ġobl":7636,"Ġ1962":7637,"Ġreturns":7638,"Ġ1959":7639,"Ġ1938":7640,"ĠMega":7641,"quez":7642,"alky":7643,"Ġinvolving":7644,"Ġrepresenting":7645,"Ġequivalent":7646,"Ġgoddess":7647,"Ġpraise":7648,"ĠAtlanta":7649,"Ġvillages":7650,"ymph":7651,"Ġpitcher":7652,"Ġdifficulties":7653,"Ġsuperior":7654,"ĠImperial":7655,"Ġbiography":7656,"ĠEmperor":7657,"ĠPlayer":7658,"Ġobjects":7659,"ĠQueens":7660,"Ġintensified":7661,"Ġpurchase":7662,"Ġcarrying":7663,"ĠKorean":7664,"Ġvessels":7665,"Ġfixed":7666,"ĠGuardian":7667,"Ġbatsman":7668,"ĠCambodia":7669,"Ġglobal":7670,"Ġunsuccessful":7671,"ĠStefani":7672,"Ġrhythm":7673,"emetery":7674,"ĠGarcÃŃa":7675,"don":7676,"mes":7677,"rator":7678,"wald":7679,"yer":7680,"zi":7681,"Ġtight":7682,"Ġfine":7683,"Ġfold":7684,"Ġblow":7685,"Ġbone":7686,"Ġpure":7687,"icop":7688,"icide":7689,"ĠAP":7690,"ĠCult":7691,"Ġonline":7692,"ĠBang":7693,"Ġgro":7694,"terbury":7695,"ĠHind":7696,"ĠRaff":7697,"ĠFurt":7698,"chang":7699,"Ġhem":7700,"resents":7701,"iform":7702,"Ġexchange":7703,"Ġunion":7704,"ureau":7705,"Ġcloth":7706,"overs":7707,"Ġcommit":7708,"Ġcommitted":7709,"Ġ67":7710,"Ġamino":7711,"Ġ162":7712,"Ġconcerts":7713,"Ġsimultane":7714,"ĠCanterbury":7715,"echism":7716,"Ġperiods":7717,"Ġcovers":7718,"iterranean":7719,"Ġdefeating":7720,"Ġinfluences":7721,"Ġdivisions":7722,"Ġneeds":7723,"Ġcollaps":7724,"ĠMediterranean":7725,"Ġnarrative":7726,"Ġreveals":7727,"Ġescort":7728,"ĠPrior":7729,"ĠEnterprise":7730,"Ġaccompany":7731,"Ġinternal":7732,"Ġdisappoint":7733,"Ġcamera":7734,"Ġbehaviour":7735,"ĠPalestine":7736,"Ġvoiced":7737,"ĠAthletic":7738,"Ġpreferred":7739,"ĠAerith":7740,"ĠPhillies":7741,"ĠGrammy":7742,"Ġsurvivors":7743,"Ġresources":7744,"species":7745,"after":7746,"burn":7747,"boy":7748,"math":7749,"rich":7750,"vements":7751,"Ġbor":7752,"Ġdens":7753,"ĠSports":7754,"elle":7755,"ĠMir":7756,"ĠMother":7757,"ĠMÃ¡":7758,"urrent":7759,"ĠHou":7760,"ĠRugby":7761,"ĠFound":7762,"ĠFront":7763,"Ġrugby":7764,"Ġexit":7765,"ĠKen":7766,"ĠKann":7767,"ĠKrak":7768,"iped":7769,"ishment":7770,"ĠAlong":7771,"rene":7772,"Ġfeed":7773,"Ġdeck":7774,"Ġformally":7775,"Ġfollowers":7776,"Ġ09":7777,"Ġrepresents":7778,"Ġoperating":7779,"Ġconsiders":7780,"ĠUSD":7781,"ĠProg":7782,"Ġclassic":7783,"Ġrefers":7784,"ĠMcG":7785,"Ġcovering":7786,"Ġelse":7787,"Ġcriticised":7788,"Ġdoesn":7789,"Ġcloser":7790,"ĠChampionships":7791,"ĠMarkgra":7792,"Ġtribut":7793,"Ġabsence":7794,"Ġcruiser":7795,"Ġfeelings":7796,"Ġvisitors":7797,"Ġproducts":7798,"Ġnormally":7799,"Ġhundreds":7800,"ĠCathedral":7801,"Ġlegislation":7802,"Ġdeployed":7803,"Ġinterpret":7804,"Ġpanel":7805,"Ġarrested":7806,"Ġdialogue":7807,"Ġproposal":7808,"inje":7809,"Ġastronom":7810,"Ġpupils":7811,"Ġmunicipal":7812,"ĠFernand":7813,"ĠColorado":7814,"ĠRaffles":7815,"ĠFurtado":7816,"ĠMarkgraf":7817,"CC":7818,"OK":7819,"ean":7820,"iy":7821,"Ġille":7822,"Ġtank":7823,"hered":7824,"Ġaw":7825,"Ġfram":7826,"ashed":7827,"ĠSatur":7828,"Ġliber":7829,"ĠBell":7830,"ĠBath":7831,"otype":7832,"ĠHud":7833,"ĠHok":7834,"Ġstable":7835,"ĠRoc":7836,"rage":7837,"ĠLy":7838,"ĠNar":7839,"ĠNad":7840,"ĠNichol":7841,"Ġdeem":7842,"Ġchoir":7843,"Ġorb":7844,"ĠUsta":7845,"ishn":7846,"ĠValky":7847,"Ġreconnaissance":7848,"Ġappropri":7849,"Ġmanuscript":7850,"Ġoutl":7851,"Ġtele":7852,"ĠComb":7853,"Ġprerogative":7854,"Ġforming":7855,"ĠSholay":7856,"Ġenth":7857,"Ġsurpr":7858,"Ġ166":7859,"Ġextent":7860,"Ġinfrast":7861,"ullen":7862,"Ġannually":7863,"Ġ140":7864,"Ġtrading":7865,"Ġconvection":7866,"Ġskull":7867,"Ġbiographer":7868,"Ġdevot":7869,"Ġresearchers":7870,"Ġpoorly":7871,"Ġstationed":7872,"Ġcheck":7873,"Ġsatisf":7874,"Ġensure":7875,"Ġmoments":7876,"Ġdrums":7877,"Ġdisplays":7878,"onomy":7879,"ĠDominican":7880,"ĠNHL":7881,"Ġsubmarine":7882,"Ġreconstruction":7883,"cribed":7884,"ĠDAG":7885,"Ġmuscaria":7886,"Ġoverwhel":7887,"ĠUstaÅ¡":7888,"DH":7889,"friend":7890,"life":7891,"rants":7892,"vati":7893,"zac":7894,"inian":7895,"Ġsunk":7896,"Ġsaves":7897,"Ġwings":7898,"ori":7899,"Ġcreek":7900,"Ġbrand":7901,"Ġdream":7902,"Ġdinosaur":7903,"entional":7904,"ĠCape":7905,"Ġlose":7906,"Ġloy":7907,"Ġlists":7908,"Ġnav":7909,"ĠBat":7910,"owiec":7911,"Ġstreets":7912,"ĠRom":7913,"ĠWiÅ":7914,"ĠJenn":7915,"ateau":7916,"Ġorbit":7917,"anti":7918,"ogy":7919,"Ġintense":7920,"Ġclock":7921,"Ġabund":7922,"ĠAlb":7923,"ricted":7924,"Ġjun":7925,"ĠShow":7926,"Ġentitled":7927,"Ġtransition":7928,"Ġobst":7929,"Ġextension":7930,"ĠWho":7931,"Ġbelt":7932,"ĠBlood":7933,"Ġuseful":7934,"Ġphr":7935,"Ġmodified":7936,"Ġdriven":7937,"ĠRecord":7938,"Ġposted":7939,"Ġinfluential":7940,"Ġdivor":7941,"ĠRichmond":7942,"ĠMaggie":7943,"Ġsteam":7944,"ĠMexican":7945,"Ġinjuries":7946,"Ġframe":7947,"Ġmemory":7948,"Ġwithdrew":7949,"ĠFIFA":7950,"Ġunderstanding":7951,"Ġdramatic":7952,"Ġbombard":7953,"Ġemerg":7954,"Ġpurposes":7955,"Ġessential":7956,"Ġdynasty":7957,"Ġdoubt":7958,"Ġutil":7959,"niowiec":7960,"ĠWiÅĽ":7961,"eared":7962,"hist":7963,"ker":7964,"lie":7965,"lock":7966,"ng":7967,"oom":7968,"ugh":7969,"Ġtests":7970,"Ġsaved":7971,"Ġchess":7972,"arth":7973,"Ġbed":7974,"rous":7975,"Ġdiplom":7976,"ĠSn":7977,"ilst":7978,"ĠCBS":7979,"ĠMun":7980,"ĠMach":7981,"ĠBow":7982,"ĠBab":7983,"ĠBenn":7984,"Ġgard":7985,"Ġash":7986,"ĠRest":7987,"andy":7988,"ĠEle":7989,"Ġrated":7990,"Ġrates":7991,"Ġridge":7992,"Ġplane":7993,"Ġshipping":7994,"acks":7995,"Ġspoke":7996,"ĠVII":7997,"Ġago":7998,"Ġotherwise":7999,"teenth":8000,"Ġ78":8001,"Ġ900":8002,"ugosl":8003,"ĠArk":8004,"Ġwritings":8005,"Ġactual":8006,"Ġformal":8007,"Ġsubspecies":8008,"inson":8009,"Ġammun":8010,"Ġ101":8011,"Ġtrail":8012,"Ġseverely":8013,"Ġexposure":8014,"Ġ155":8015,"Ġoriginated":8016,"Ġinstalled":8017,"Ġgenerated":8018,"Ġhelicop":8019,"Ġrestrict":8020,"ĠParvati":8021,"Ġlisten":8022,"Ġparish":8023,"Ġ1928":8024,"Ġengines":8025,"Ġdemand":8026,"Ġsuggesting":8027,"Ġexcess":8028,"Ġfactors":8029,"ĠFederal":8030,"Ġwatching":8031,"Ġinterests":8032,"restling":8033,"ĠTownship":8034,"Ġcrosses":8035,"Ġburned":8036,"Ġinformed":8037,"ĠMoore":8038,"Ġkingdom":8039,"Ġmaterials":8040,"Ġpersu":8041,"itzer":8042,"Ġhappened":8043,"ĠPortugal":8044,"ĠIsraeli":8045,"Ġloan":8046,"ĠNorway":8047,"criptions":8048,"Ġapparently":8049,"ĠMassachus":8050,"Ġjournalist":8051,"Ġpicture":8052,"Ġchairman":8053,"ĠJacob":8054,"Ġjackrab":8055,"ĠRÃ©union":8056,"Ġcircumstances":8057,"ĠEducation":8058,"ekÄģntav":8059,"ĠBarker":8060,"ĠWiÅĽniowiec":8061,"Ġammunition":8062,"ĠMassachusetts":8063,"DS":8064,"western":8065,"heera":8066,"Ġori":8067,"Ġwine":8068,"Ġciting":8069,"Ġfestival":8070,"ĠSid":8071,"ĠSab":8072,"ilation":8073,"ĠCec":8074,"acter":8075,"urse":8076,"ĠBaker":8077,"ĠBranch":8078,"ĠHamp":8079,"ĠHaving":8080,"ĠProm":8081,"ĠRoth":8082,"ĠDh":8083,"ĠDig":8084,"ĠGary":8085,"ĠGwen":8086,"ĠLith":8087,"ĠLang":8088,"ĠNiel":8089,"ĠEaton":8090,"ĠEagle":8091,"oren":8092,"ĠIntern":8093,"ĠKim":8094,"ĠâĤ":8095,"iang":8096,"Ġunlike":8097,"oko":8098,"Ġclimate":8099,"Ġresign":8100,"ryce":8101,"Ġdisaster":8102,"Ġpartially":8103,"ĠYugosl":8104,"Ġconsc":8105,"Ġ84":8106,"Ġrelie":8107,"inder":8108,"ĠSee":8109,"Ġmovements":8110,"Ġimpossible":8111,"Ġoperate":8112,"Ġcarved":8113,"Ġgenerals":8114,"Ġeleven":8115,"ĠDeath":8116,"ĠGuide":8117,"Ġlatex":8118,"Ġstarlings":8119,"Ġparas":8120,"urricanes":8121,"Ġ1927":8122,"Ġcauses":8123,"Ġvictories":8124,"Ġsurvive":8125,"Ġsky":8126,"Ġready":8127,"Ġmixture":8128,"Ġpredomin":8129,"Ġburning":8130,"ĠMinor":8131,"ĠMinistry":8132,"ĠKhand":8133,"ĠWilson":8134,"Ġmerch":8135,"forced":8136,"Ġtransportation":8137,"Ġmemorial":8138,"rorist":8139,"Ġlayer":8140,"Ġcancer":8141,"Ġshells":8142,"Ġinstitution":8143,"Ġinstruments":8144,"Ġthousand":8145,"ĠSilver":8146,"Ġbehavior":8147,"ĠHistoric":8148,"Ġdeparture":8149,"ĠRAAF":8150,"ĠSwedish":8151,"Ġsubstantial":8152,"Ġoverseas":8153,"Ġresistance":8154,"ĠKannada":8155,"ĠUstaÅ¡e":8156,"ekÄģntavÄģda":8157,"EC":8158,"Hg":8159,"cru":8160,"de":8161,"gov":8162,"pan":8163,"put":8164,"pson":8165,"piece":8166,"rquez":8167,"Ġtack":8168,"Ġturb":8169,"inery":8170,"err":8171,"Ġmamm":8172,"Ġdangerous":8173,"ĠAz":8174,"ĠSans":8175,"ĠSup":8176,"ĠSoon":8177,"ĠCelt":8178,"Ġeat":8179,"Ġwasn":8180,"ĠMidge":8181,"ĠMasters":8182,"urst":8183,"ĠBudd":8184,"ĠBureau":8185,"Ġbearing":8186,"ĠRa":8187,"ĠLast":8188,"Ġheat":8189,"Ġspend":8190,"Ġspores":8191,"Ġresigned":8192,"Ġrecur":8193,"Ġrooms":8194,"Ġafterwards":8195,"weight":8196,"Ġcommem":8197,"Ġtex":8198,"obile":8199,"ĠSeason":8200,"Ġsubst":8201,"Ġamateur":8202,"Ġsupporters":8203,"Ġ113":8204,"Ġ178":8205,"Ġinstance":8206,"Ġmusician":8207,"Ġadvis":8208,"Ġmodels":8209,"Ġ1933":8210,"onto":8211,"Ġrestored":8212,"Ġmarry":8213,"Ġlisting":8214,"Ġwindows":8215,"ĠPerfect":8216,"Ġtemples":8217,"Ġelectronic":8218,"encing":8219,"Ġcompete":8220,"ĠSimpson":8221,"ĠPolice":8222,"ĠGlad":8223,"Ġinteresting":8224,"Ġlooks":8225,"Ġtechniques":8226,"Ġsquadron":8227,"Ġsequences":8228,"Ġ1860":8229,"Ġcopy":8230,"Ġengineers":8231,"Ġthinking":8232,"Ġtribute":8233,"Ġestablishing":8234,"Ġdocuments":8235,"Ġautom":8236,"ĠHowe":8237,"ĠVeronica":8238,"ASA":8239,"Ġsafe":8240,"Ġinteraction":8241,"Ġspiritual":8242,"Ġopportunities":8243,"Ġstruggle":8244,"Ġpremiered":8245,"Ġbeautiful":8246,"ĠStewart":8247,"ĠGilbert":8248,"ĠYanke":8249,"Ġcongreg":8250,"Ġnickn":8251,"ĠMÃ¡rquez":8252,"ĠKhandoba":8253,"mate":8254,"ti":8255,"uable":8256,"za":8257,"Ġels":8258,"Ġty":8259,"inate":8260,"Ġsale":8261,"isler":8262,"Ġbord":8263,"ĠinHg":8264,"Ġpale":8265,"Ġtoll":8266,"roit":8267,"Ġmode":8268,"ĠCob":8269,"oma":8270,"omura":8271,"ĠThen":8272,"ĠBa":8273,"ĠBah":8274,"ĠIra":8275,"Ġforcing":8276,"ĠPur":8277,"ĠDak":8278,"ĠFall":8279,"ĠFRE":8280,"ulating":8281,"ĠWag":8282,"ĠWright":8283,"ĠJr":8284,"opl":8285,"Ġprove":8286,"Ġvast":8287,"udes":8288,"Ġnotably":8289,"apse":8290,"ĠVul":8291,"Ġrecru":8292,"Ġdesert":8293,"Ġattrib":8294,"Ġremember":8295,"Ġconsol":8296,"Ġconservation":8297,"ologies":8298,"Ġregiment":8299,"Ġcoins":8300,"Ġ123":8301,"Ġ165":8302,"Ġminimum":8303,"Ġreprodu":8304,"Ġpoll":8305,"Ġartwork":8306,"Ġartificial":8307,"Ġdesigns":8308,"Ġoffices":8309,"Ġ1957":8310,"Ġadventure":8311,"Ġhelmet":8312,"ĠMcL":8313,"Ġstorms":8314,"Ġcriminal":8315,"Ġmyst":8316,"Ġsituated":8317,"Ġreaders":8318,"Ġrecognised":8319,"Ġachieve":8320,"ĠToronto":8321,"Ġproperties":8322,"Ġexperiences":8323,"ĠJustice":8324,"ĠMiller":8325,"Ġweapon":8326,"Ġneighbor":8327,"Ġvessel":8328,"ĠJurchen":8329,"ĠGirls":8330,"ĠDetroit":8331,"ĠPhoenix":8332,"LIMO":8333,"ĠMulder":8334,"Ġretirement":8335,"ĠMozambique":8336,"Ġacknowled":8337,"ĠSaturday":8338,"Ġelsewhere":8339,"ĠFRELIMO":8340,"book":8341,"mit":8342,"wick":8343,"zo":8344,"Ġrib":8345,"Ġtiss":8346,"Ġtanks":8347,"rees":8348,"Ġsad":8349,"Ġsons":8350,"Ġsung":8351,"Ġfant":8352,"Ġfountain":8353,"Ġbod":8354,"Ġbell":8355,"asm":8356,"Ġhorn":8357,"ĠAra":8358,"ĠSuch":8359,"ĠCP":8360,"ĠCas":8361,"lyn":8362,"ĠImp":8363,"Ġgiant":8364,"ĠPC":8365,"ĠPot":8366,"ĠRen":8367,"uls":8368,"Ġalle":8369,"ĠGray":8370,"ĠNetwork":8371,"ĠEsh":8372,"Ġselection":8373,"arte":8374,"ĠKy":8375,"ĠKansas":8376,"ĠVice":8377,"Ġagents":8378,"Ġenh":8379,"phy":8380,"ĠUnivers":8381,"oyage":8382,"Ġformat":8383,"Ġcooper":8384,"Ġfounder":8385,"Ġsurg":8386,"Ġtrained":8387,"ĠScully":8388,"Ġdepending":8389,"atherine":8390,"yline":8391,"ĠWarren":8392,"Ġcounties":8393,"Ġcharacterized":8394,"ĠCanal":8395,"Ġstarred":8396,"Ġengage":8397,"Ġantic":8398,"ĠManagement":8399,"Ġformerly":8400,"ĠBarry":8401,"Ġwestward":8402,"Ġstatistics":8403,"Ġprogramme":8404,"Ġgrounds":8405,"Ġradiation":8406,"ĠKevin":8407,"Ġ1850":8408,"Ġfallen":8409,"Ġmeasured":8410,"Ġcosts":8411,"Ġburial":8412,"Ġobjective":8413,"Ġfrig":8414,"Ġnetworks":8415,"Ġdepicts":8416,"ĠRussia":8417,"Ġcleared":8418,"Ġbiggest":8419,"Ġphotograph":8420,"Ġholiday":8421,"Ġvehicle":8422,"Ġexcavation":8423,"Ġremarked":8424,"chell":8425,"ĠJourney":8426,"ĠAlbums":8427,"ĠMemorial":8428,"ĠColeman":8429,"ĠBulls":8430,"Ġdelayed":8431,"Ġcrops":8432,"Ġcitizens":8433,"Ġconvinced":8434,"ĠHudson":8435,"Ġinfrastructure":8436,"ĠWiÅĽniowiecki":8437,"Ch":8438,"iac":8439,"night":8440,"yo":8441,"Ã±":8442,"Ġå":8443,"Ġid":8444,"Ġfert":8445,"esh":8446,"alley":8447,"icit":8448,"icul":8449,"Ġmoon":8450,"Ġdwar":8451,"ĠTu":8452,"Ġrender":8453,"ellect":8454,"acec":8455,"ĠMuch":8456,"ĠBad":8457,"olen":8458,"Ġstyles":8459,"ĠPow":8460,"ĠDave":8461,"emies":8462,"ĠGate":8463,"osh":8464,"ĠNob":8465,"aints":8466,"Ġvul":8467,"Ġdeleg":8468,"Ġrivers":8469,"ĠKong":8470,"acked":8471,"ĠStal":8472,"ĠStories":8473,"ellar":8474,"Ġcompound":8475,"ruz":8476,"rupted":8477,"assador":8478,"Ġresidence":8479,"Ġplayoff":8480,"ĠAnzac":8481,"Ġfeathers":8482,"Ġdecides":8483,"ĠArsenal":8484,"Ġflash":8485,"Ġ02":8486,"Ġ03":8487,"Ġ163":8488,"Ġdescribe":8489,"Ġinscription":8490,"ĠPlat":8491,"Ġrestoration":8492,"ĠBeh":8493,"Ġdifferences":8494,"Ġ1926":8495,"Ġopponent":8496,"shore":8497,"Ġclaiming":8498,"Ġskills":8499,"ĠDavis":8500,"Ġfuner":8501,"ĠMagdal":8502,"Ġsteep":8503,"Ġpredators":8504,"amental":8505,"Ġcondem":8506,"Ġaudiences":8507,"Ġclosest":8508,"Ġclearly":8509,"ĠOscar":8510,"Ġhousing":8511,"Ġrailroad":8512,"Ġfrust":8513,"ĠRepublican":8514,"Ġdetermine":8515,"avalry":8516,"Ġvote":8517,"ĠPeters":8518,"ĠMrs":8519,"ĠTrek":8520,"Ġdisplayed":8521,"ĠConfeder":8522,"iggs":8523,"Ġhunting":8524,"Ġranging":8525,"Ġtunnel":8526,"ĠOriginally":8527,"ĠNevertheless":8528,"Ġbenefit":8529,"ĠPersian":8530,"Ġreservoir":8531,"Ġreinforcements":8532,"Ġcrake":8533,"Ġimprison":8534,"Ġpredecessor":8535,"ĠOrganization":8536,"ĠInitially":8537,"ĠTerritory":8538,"ĠProfess":8539,"ĠProtestant":8540,"ĠHokies":8541,"Ġdwarf":8542,"Malley":8543,"gam":8544,"mouth":8545,"ta":8546,"rep":8547,"atically":8548,"Ġcyt":8549,"Ġbones":8550,"icia":8551,"Ġmyc":8552,"oux":8553,"ĠTal":8554,"ĠCategory":8555,"eld":8556,"Ġlake":8557,"Ġeasy":8558,"acles":8559,"ĠISB":8560,"Ġgrown":8561,"ĠHay":8562,"ĠHope":8563,"ĠPle":8564,"ĠWing":8565,"ĠGro":8566,"Ġcomed":8567,"ĠChagas":8568,"iao":8569,"Ġintellect":8570,"uez":8571,"ignment":8572,"Ġattained":8573,"Ġteen":8574,"ĠUntil":8575,"Ġpoison":8576,"Ġrelation":8577,"Ġunderw":8578,"Ġprime":8579,"Ġdefending":8580,"Ġ01":8581,"Ġthereafter":8582,"Ġsmooth":8583,"Ġinstall":8584,"Ġcargo":8585,"Ġanyone":8586,"uthor":8587,"ĠAllen":8588,"Ġpromised":8589,"Ġprompted":8590,"Ġrestricted":8591,"ĠParaly":8592,"Ġchildhood":8593,"Ġslide":8594,"Ġbreed":8595,"Ġcommandment":8596,"ĠAbby":8597,"Ġtemporary":8598,"Ġelections":8599,"Ġarrive":8600,"Ġrepresentative":8601,"ĠEvent":8602,"sequently":8603,"Ġerr":8604,"Ġ1905":8605,"Ġannounce":8606,"ĠMagad":8607,"Ġpriest":8608,"Ġranking":8609,"Ġargues":8610,"ĠRocky":8611,"Ġruling":8612,"Ġperspective":8613,"ĠTurks":8614,"Ġadaptation":8615,"Ġaspect":8616,"Ġdegrees":8617,"Ġbadly":8618,"ĠVictorian":8619,"Ġmagnitude":8620,"Ġcorner":8621,"ĠCorb":8622,"Ġthrone":8623,"Ġscientists":8624,"ĠMathews":8625,"ĠCommunist":8626,"Ġranges":8627,"Ġpreparation":8628,"ĠJonathan":8629,"ĠChapel":8630,"ĠLegacy":8631,"Ã¶n":8632,"ĠLeslie":8633,"Ġexclusively":8634,"Ġmoderate":8635,"ĠExpress":8636,"ĠKelly":8637,"Ġfalse":8638,"ĠValkyria":8639,"ĠWagner":8640,"Ġalleged":8641,"ĠISBN":8642,"ĠParalymp":8643,"EFA":8644,"aft":8645,"hire":8646,"raska":8647,"ski":8648,"zhou":8649,"Ã£":8650,"Ġaster":8651,"Ġtheater":8652,"eries":8653,"Ġsnow":8654,"Ġsisters":8655,"Ġwet":8656,"orious":8657,"itively":8658,"Ġcake":8659,"Ġcup":8660,"Ġcaves":8661,"Ġfate":8662,"Ġbra":8663,"Ġbind":8664,"Ġpine":8665,"Ġmac":8666,"Ġhuge":8667,"leton":8668,"Ġrevers":8669,"ĠAce":8670,"ilty":8671,"Ġlat":8672,"amount":8673,"Ġnurse":8674,"ĠMit":8675,"Ġgates":8676,"olithic":8677,"ĠHans":8678,"ĠPf":8679,"Ġbear":8680,"rawn":8681,"ĠLud":8682,"ĠLamb":8683,"ĠNash":8684,"Ġdeity":8685,"Ġsup":8686,"Ġexists":8687,"ĠKurt":8688,"ĠâĢľ":8689,"ĠUEFA":8690,"Ġspur":8691,"Ġresumed":8692,"Ġmanga":8693,"active":8694,"Ġaftern":8695,"Ġoffs":8696,"Ġoutbreak":8697,"Ġfee":8698,"Ġearn":8699,"Ġconsp":8700,"Ġtrust":8701,"Ġcharged":8702,"Ġsymp":8703,"arsh":8704,"ĠShel":8705,"Ġdiscip":8706,"Ġowners":8707,"Ġnorthward":8708,"ĠHerze":8709,"Ġportrait":8710,"Ġexplo":8711,"Ġexplains":8712,"Ġhandled":8713,"Ġdeliber":8714,"Ġeveryone":8715,"ĠAmb":8716,"Ġbands":8717,"Ġerected":8718,"ĠGlob":8719,"ĠImag":8720,"ĠEmmy":8721,"Ġengineer":8722,"Ġinjured":8723,"ĠPoly":8724,"Ġamounts":8725,"Ġcolonies":8726,"Ġinnov":8727,"ASP":8728,"Ġboundary":8729,"ĠOutstanding":8730,"ĠWaterfall":8731,"Ġcelebrated":8732,"ĠCatechism":8733,"Ġarchitecture":8734,"ĠCheval":8735,"Ġadvertising":8736,"Ġstrengthened":8737,"Ġfatal":8738,"Ġbulk":8739,"borne":8740,"ĠBrooks":8741,"Ġrifle":8742,"ĠDemocratic":8743,"burgh":8744,"Ġinhabitants":8745,"ĠBertin":8746,"ĠNebraska":8747,"ĠTreaty":8748,"Ġdeemed":8749,"govina":8750,"ĠCeltic":8751,"ĠIraq":8752,"ĠMagadheera":8753,"NL":8754,"SP":8755,"oes":8756,"xual":8757,"Ġtherap":8758,"erg":8759,"orable":8760,"Ġcars":8761,"Ġcateg":8762,"Ġbishop":8763,"Ġbanned":8764,"Ġpy":8765,"Ġrend":8766,"omtav":8767,"adier":8768,"urer":8769,"olia":8770,"ivated":8771,"otten":8772,"ĠPryce":8773,"ĠDum":8774,"ĠDog":8775,"unes":8776,"Ġalt":8777,"char":8778,"ĠLet":8779,"ĠLower":8780,"Ġanaly":8781,"umin":8782,"agen":8783,"ategy":8784,"aki":8785,"aks":8786,"Ġchrom":8787,"Ġchamber":8788,"ĠKam":8789,"okovic":8790,"enden":8791,"ĠHeaven":8792,"ĠThus":8793,"Ġscattered":8794,"Ġpartner":8795,"ĠYo":8796,"inton":8797,"ĠAsomtav":8798,"Ġ92":8799,"ugu":8800,"Ġrecordings":8801,"Ġsubstitute":8802,"ĠReb":8803,"Ġenters":8804,"Ġexposed":8805,"Ġmonuments":8806,"Ġ117":8807,"ĠSheff":8808,"azines":8809,"Ġreven":8810,"Ġinscriptions":8811,"Ġlandings":8812,"Ġwarning":8813,"Ġdesigner":8814,"ashi":8815,"Ġprompt":8816,"Ġstrategy":8817,"Ġdifference":8818,"Ġtriple":8819,"plete":8820,"Ġ1924":8821,"Ġ1925":8822,"Ġdriver":8823,"Ġdemands":8824,"Ġpropag":8825,"Ġprofile":8826,"Ġsounds":8827,"ĠHarold":8828,"Ġsupern":8829,"ĠMadrid":8830,"ĠBusiness":8831,"Ġuncertain":8832,"ĠPriest":8833,"Ġprevented":8834,"Ġapplication":8835,"Ġdominant":8836,"Ġproductions":8837,"Ġprincip":8838,"ĠDjokovic":8839,"Ġgraphics":8840,"Ġjudge":8841,"Ġpursue":8842,"Ġdemonstrated":8843,"Ġdistinctive":8844,"Ġexcavations":8845,"Ġneutral":8846,"ĠUlt":8847,"Ġcollaboration":8848,"Ġturrets":8849,"Ġgarrison":8850,"Ġtactics":8851,"ĠMurray":8852,"Ġexecuted":8853,"ĠRailway":8854,"ĠAlfred":8855,"Ġdistinguished":8856,"Ġsettlements":8857,"ĠRifles":8858,"eorological":8859,"Ġethnic":8860,"ĠHouston":8861,"ĠNielsen":8862,"Ġtexts":8863,"ĠYankees":8864,"ĠHerzegovina":8865,"ĠAsomtavruli":8866,"NC":8867,"PA":8868,"bre":8869,"box":8870,"father":8871,"gars":8872,"ji":8873,"tah":8874,"uz":8875,"Ġtenth":8876,"Ġax":8877,"Ġceratops":8878,"isp":8879,"arant":8880,"Ġpap":8881,"Ġpounds":8882,"Ġmbar":8883,"ĠSS":8884,"eland":8885,"Ġnurs":8886,"ĠMant":8887,"ĠBible":8888,"ĠBrand":8889,"ĠBarn":8890,"Ġforty":8891,"ige":8892,"tered":8893,"usic":8894,"Ġstood":8895,"ĠRap":8896,"ĠWeb":8897,"ĠWomen":8898,"ĠNL":8899,"ĠNav":8900,"ĠJen":8901,"Ġhen":8902,"rior":8903,"ĠExt":8904,"Ġsure":8905,"essee":8906,"Ġkit":8907,"ellite":8908,"oster":8909,"usts":8910,"Ġusage":8911,"ĠThose":8912,"ints":8913,"Ġcenters":8914,"Ġfeels":8915,"Ġcharity":8916,"Ġreleases":8917,"Ġassisted":8918,"Ġcoin":8919,"ieties":8920,"Ġexpect":8921,"Ġ170":8922,"Ġdowntown":8923,"Ġcarri":8924,"ĠCarre":8925,"ervative":8926,"Ġedges":8927,"Ġconsidering":8928,"ĠDean":8929,"Ġ1934":8930,"apping":8931,"Ġapproval":8932,"Ġdrain":8933,"ĠAbd":8934,"Ġinitiated":8935,"Ġamongst":8936,"Ġelder":8937,"Ġmagazines":8938,"ĠSupp":8939,"ĠAnglo":8940,"Ġliked":8941,"ĠBerlin":8942,"ĠMadison":8943,"ĠJews":8944,"ĠPhilip":8945,"ĠCorporation":8946,"Ġquarterback":8947,"ĠCongo":8948,"Ġsubjects":8949,"Ġarchaeologist":8950,"ĠOverall":8951,"Ġindicating":8952,"Ġadopt":8953,"Ġtournaments":8954,"Ġboxing":8955,"ĠTennessee":8956,"Ġabandon":8957,"Ġtranslation":8958,"Ġsuspended":8959,"ĠConservation":8960,"ĠHawaii":8961,"Ġdefenders":8962,"Ġsucceed":8963,"Ġsacred":8964,"ĠGallery":8965,"ĠIndependence":8966,"Ġduty":8967,"Ġinterpre":8968,"ĠKirk":8969,"ĠOriginal":8970,"Ġaltered":8971,"ĠGhost":8972,"Ġpremiere":8973,"Ġstriking":8974,"Ġresidential":8975,"Ġphilosophy":8976,"Ġmartial":8977,"Ġscheme":8978,"Ġemergency":8979,"Ġcommemor":8980,"ĠEshmun":8981,"Ġasteroid":8982,"Ġafternoon":8983,"IA":8984,"egr":8985,"gers":8986,"ping":8987,"rh":8988,"zym":8989,"Ġï":8990,"Ġtale":8991,"inations":8992,"Ġcous":8993,"Ġfill":8994,"Ġfoss":8995,"alog":8996,"Ġpull":8997,"Ġtoured":8998,"ĠTok":8999,"ĠTax":9000,"ĠAT":9001,"ĠAman":9002,"ĠSign":9003,"ĠSAS":9004,"ĠCO":9005,"ĠCond":9006,"eled":9007,"ami":9008,"Ġnet":9009,"Ġnations":9010,"urd":9011,"Ġgh":9012,"oto":9013,"ĠHills":9014,"owa":9015,"ĠDiam":9016,"ĠDah":9017,"ĠFem":9018,"rapping":9019,"ĠNS":9020,"ĠNon":9021,"ĠNaval":9022,"ĠNDH":9023,"ctor":9024,"odore":9025,"rik":9026,"ĠOt":9027,"ĠOmar":9028,"sex":9029,"ĠStav":9030,"Ġspr":9031,"iney":9032,"Ġuniform":9033,"Ġroots":9034,"action":9035,"ĠOntar":9036,"ĠAnne":9037,"away":9038,"ĠMariana":9039,"Ġcoinc":9040,"anyon":9041,"ieth":9042,"Ġreceives":9043,"Ġ114":9044,"Ġconclusion":9045,"aza":9046,"Ġimpression":9047,"Ġimpressed":9048,"isms":9049,"Ġguilty":9050,"Ġvariation":9051,"ĠBeg":9052,"apped":9053,"raction":9054,"Ġpersonality":9055,"Ġ1000":9056,"ĠXenon":9057,"Ġrealized":9058,"itarian":9059,"Ġcommunication":9060,"Ġcrisis":9061,"ĠRomanian":9062,"Ġordering":9063,"Ġnortheastern":9064,"neath":9065,"ĠEvans":9066,"Ġ1908":9067,"ĠNext":9068,"umps":9069,"ĠMagn":9070,"regon":9071,"ĠMountains":9072,"Ġbattlecru":9073,"Ġvalid":9074,"ĠSwiss":9075,"Ġreducing":9076,"Ġcolleagues":9077,"Ġfifty":9078,"Ġrespective":9079,"ĠPeach":9080,"Ġreveal":9081,"Ġcrews":9082,"Ġviolent":9083,"Ġ1870":9084,"ĠAgain":9085,"ĠGrade":9086,"Ġtesting":9087,"Ġoccupation":9088,"Ġdiagn":9089,"Ġfrequent":9090,"ĠFinals":9091,"Ġschedule":9092,"Ġtalking":9093,"Ġrequested":9094,"Ġenvironmental":9095,"Ġdefinition":9096,"ĠMichel":9097,"ĠVillage":9098,"ĠGiants":9099,"Ġdelivery":9100,"ĠCaes":9101,"ĠCubs":9102,"Ġeliminated":9103,"Ġrebuilt":9104,"ĠSorra":9105,"ĠLabour":9106,"ĠRelease":9107,"ĠWicca":9108,"Ġsimultaneously":9109,"ĠProgram":9110,"ĠImagine":9111,"ĠChevaliers":9112,"ĠSheffield":9113,"ĠOntario":9114,"Pa":9115,"bing":9116,"eign":9117,"gets":9118,"jamin":9119,"nership":9120,"vious":9121,"wan":9122,"Ġsang":9123,"Ġwel":9124,"nda":9125,"Ġcotton":9126,"alf":9127,"aski":9128,"rose":9129,"Ġdict":9130,"Ġdiver":9131,"lem":9132,"ĠABC":9133,"ĠSay":9134,"ĠCress":9135,"ĠCyr":9136,"Ġlamb":9137,"ĠMain":9138,"ĠBush":9139,"ĠBanks":9140,"Ġgets":9141,"etime":9142,"idel":9143,"Ġasks":9144,"Ġstrict":9145,"uty":9146,"ĠPubl":9147,"ĠPrest":9148,"ĠDD":9149,"ĠDor":9150,"ĠDud":9151,"Ġisot":9152,"ulu":9153,"Ġalph":9154,"ĠLinc":9155,"ĠNear":9156,"ĠEy":9157,"ĠOregon":9158,"oples":9159,"Ġprosp":9160,"ardine":9161,"Ġyield":9162,"ipes":9163,"uster":9164,"ĠVic":9165,"Ġcomponents":9166,"Ġclim":9167,"pled":9168,"Ġdisagre":9169,"Ġovert":9170,"overeign":9171,"angular":9172,"Ġupset":9173,"enses":9174,"inted":9175,"ĠAsian":9176,"Ġdecay":9177,"Ġpeaking":9178,"ĠLeigh":9179,"Ġsurf":9180,"Ġsurge":9181,"Ġ125":9182,"Ġexpression":9183,"Ġmetre":9184,"Ġrunners":9185,"Ġoperates":9186,"ĠCarmel":9187,"Ġmathem":9188,"Ġgray":9189,"ĠCommons":9190,"Ġhelium":9191,"ĠChristine":9192,"byter":9193,"Ġrefuge":9194,"ĠMcD":9195,"Ġvisiting":9196,"Ġorganised":9197,"Ġ1923":9198,"Ġsentences":9199,"Ġsentiment":9200,"ĠTrust":9201,"ĠTracy":9202,"Ġtempor":9203,"ĠPolit":9204,"Ġshoulder":9205,"ĠHarrison":9206,"Ġtrend":9207,"ettles":9208,"Ġsuperv":9209,"Ġfifteen":9210,"Ġrounds":9211,"Ġrenov":9212,"Ġemployees":9213,"Ġpotentially":9214,"ĠSocial":9215,"ĠRhys":9216,"ĠBenjamin":9217,"Ġjobs":9218,"Ġnewspapers":9219,"ĠErnest":9220,"ĠHawaiian":9221,"Ġwithdrawal":9222,"Ġmechanical":9223,"Ġvenues":9224,"Ġmolecules":9225,"Ġassassination":9226,"Ġtrouble":9227,"ĠSurvey":9228,"ĠPulaski":9229,"ĠAncient":9230,"Ġrhyme":9231,"Ġelaborate":9232,"ĠQueensland":9233,"Ġcollapsed":9234,"ĠDakota":9235,"acecraft":9236,"ĠEventually":9237,"ĠLincol":9238,"ES":9239,"aired":9240,"bound":9241,"ci":9242,"cl":9243,"chens":9244,"krit":9245,"pe":9246,"vant":9247,"Ġcook":9248,"Ġchest":9249,"enic":9250,"esters":9251,"Ġped":9252,"Ġphen":9253,"Ġtom":9254,"Ġdies":9255,"oust":9256,"ĠTen":9257,"ĠAut":9258,"ĠSat":9259,"ĠSony":9260,"ĠSection":9261,"ĠSisler":9262,"ĠCater":9263,"ĠCase":9264,"ĠCanyon":9265,"Ġnom":9266,"ĠMack":9267,"ĠMaur":9268,"ĠBald":9269,"iri":9270,"otyp":9271,"ĠHy":9272,"Ġstores":9273,"ĠPir":9274,"ĠDie":9275,"unch":9276,"ĠFace":9277,"ĠFarm":9278,"ĠWN":9279,"ĠWASP":9280,"ĠLost":9281,"ĠNat":9282,"agod":9283,"ĠEric":9284,"Ġvice":9285,"illiant":9286,"Ġsuitable":9287,"Ġride":9288,"arded":9289,"seud":9290,"ĠStr":9291,"Ġspacecraft":9292,"apore":9293,"ĠChron":9294,"ĠCharts":9295,"ĠVi":9296,"Ġcontribution":9297,"Ġabol":9298,"ĠHeart":9299,"Ġscar":9300,"acts":9301,"Ġremove":9302,"Ġearning":9303,"Ġquant":9304,"Ġacids":9305,"Ġamph":9306,"Ġentertain":9307,"ernon":9308,"Ġdirectors":9309,"Ġextrat":9310,"Ġartistic":9311,"Ġconstant":9312,"Ġdams":9313,"Ġadvancing":9314,"ĠUSS":9315,"cks":9316,"ĠChristopher":9317,"Ġclassification":9318,"Ġparody":9319,"Ġkills":9320,"Ġanthem":9321,"Ġantiqu":9322,"Ġexpert":9323,"Ġreferring":9324,"Ġtwin":9325,"Ġfactory":9326,"Ġstructural":9327,"Ġputting":9328,"ĠCooper":9329,"Ġcreative":9330,"atinum":9331,"Ġmachines":9332,"ĠValve":9333,"Ġasking":9334,"Ġ1830":9335,"Ġdispute":9336,"ĠSingapore":9337,"Ġdrove":9338,"Ġcompliment":9339,"ĠWoodhouse":9340,"Ġboundaries":9341,"Ġtranslated":9342,"Ġdocumented":9343,"Ġ766":9344,"Ġinhab":9345,"Ġyoungest":9346,"ĠKorea":9347,"ĠChildren":9348,"Ġseeking":9349,"ĠGardner":9350,"Ġcomparison":9351,"Ġcolumns":9352,"Ġtheatrical":9353,"Ġvertical":9354,"imetres":9355,"ĠSimilarly":9356,"minster":9357,"ĠCampbell":9358,"ĠIslamic":9359,"ĠFoundation":9360,"ĠSanskrit":9361,"ĠSupreme":9362,"Ġsurgery":9363,"ĠSorraia":9364,"ĠLincoln":9365,"Ġextratropical":9366,"Grom":9367,"fire":9368,"gon":9369,"gian":9370,"nels":9371,"ua":9372,"zong":9373,"ËĪ":9374,"á¹":9375,"Ġump":9376,"Ġtub":9377,"Ġsample":9378,"atum":9379,"Ġcave":9380,"Ġfishing":9381,"Ġfault":9382,"Ġfasc":9383,"esi":9384,"ester":9385,"Ġbrain":9386,"Ġinfer":9387,"Ġtooth":9388,"Ġtoler":9389,"Ġtopped":9390,"Ġmir":9391,"Ġmask":9392,"Ġhook":9393,"Ġhull":9394,"ĠTogether":9395,"ĠSomet":9396,"entle":9397,"star":9398,"ĠCred":9399,"ĠCullen":9400,"eloc":9401,"Ġlies":9402,"Ġlibrary":9403,"acruz":9404,"ĠBidd":9405,"imon":9406,"Ġforth":9407,"ira":9408,"Ġstim":9409,"Ġstock":9410,"ĠPanz":9411,"Ġbeam":9412,"unc":9413,"ĠWhere":9414,"ĠWander":9415,"Ġconj":9416,"ĠLas":9417,"ĠNel":9418,"ĠNatural":9419,"ĠNettles":9420,"ĠanekÄģntavÄģda":9421,"ĠJason":9422,"ĠJardine":9423,"odrom":9424,"Ġrid":9425,"Ġrig":9426,"Ġrising":9427,"akers":9428,"ĠKnow":9429,"Ġplus":9430,"Ġshaft":9431,"Ġspending":9432,"Ġnotice":9433,"ĠChampions":9434,"Ġunlik":9435,"ĠVeer":9436,"Ġinclusion":9437,"Ġenzym":9438,"ensions":9439,"ails":9440,"ĠMars":9441,"Ġproduces":9442,"Ġsubmitted":9443,"Ġcoff":9444,"Ġrevised":9445,"Ġcompleting":9446,"ĠBriggs":9447,"ennium":9448,"Ã©e":9449,"ĠPlan":9450,"Ġeffic":9451,"Ġbridges":9452,"ĠDeep":9453,"Ġreflected":9454,"ĠMcE":9455,"Ġtrials":9456,"Ġorganisation":9457,"Ġexplain":9458,"Ġpersonally":9459,"ĠPriv":9460,"Ġbases":9461,"Ġtwent":9462,"Ġcommunications":9463,"Ġprofit":9464,"Ġsolar":9465,"Ġsket":9466,"Ġrepresentation":9467,"Ġprogramming":9468,"Ġ1907":9469,"ĠNeves":9470,"Ġswim":9471,"Ġprofessor":9472,"ĠImm":9473,"Ġarmament":9474,"Ġcollapse":9475,"Ġfalls":9476,"ydney":9477,"Ġhonour":9478,"Ġcontrad":9479,"Ġremoval":9480,"Ġarchaeology":9481,"ĠPrix":9482,"ĠPrize":9483,"Ġsemif":9484,"Ġquestions":9485,"Ġbirthday":9486,"Ġsatellite":9487,"ĠVeracruz":9488,"Ġfavorable":9489,"Ġprepare":9490,"Ġpowered":9491,"ĠSpecies":9492,"ĠLouisiana":9493,"Ġhyg":9494,"Ġaggreg":9495,"Ġsculptures":9496,"Ġbattleships":9497,"ĠFurthermore":9498,"ĠObser":9499,"ĠBelgium":9500,"ĠIngres":9501,"Ġencountered":9502,"Ġsegment":9503,"ĠChronicles":9504,"ĠTelugu":9505,"ropolitan":9506,"Ġenthus":9507,"ĠDigital":9508,"ĠCresswell":9509,"Ġtemporarily":9510,"ĠBiddenden":9511,"CO":9512,"bra":9513,"equ":9514,"hum":9515,"po":9516,"tz":9517,"uki":9518,"Ġtor":9519,"Ġtip":9520,"inction":9521,"Ġsailed":9522,"Ġwives":9523,"Ġwishes":9524,"Ġfitted":9525,"Ġbom":9526,"Ġbore":9527,"Ġbare":9528,"Ġboys":9529,"Ġtox":9530,"Ġmines":9531,"Ġhidden":9532,"ĠTy":9533,"ĠTony":9534,"ĠSon":9535,"ili":9536,"ĠCant":9537,"ĠCass":9538,"Ġliqu":9539,"Ġgap":9540,"herry":9541,"ĠDa":9542,"ĠDers":9543,"ĠDub":9544,"ĠFreak":9545,"ĠLind":9546,"agogue":9547,"rift":9548,"ĠEp":9549,"ĠEcc":9550,"ewise":9551,"Ġorigins":9552,"Ġexport":9553,"Ġshares":9554,"ĠâĢĿ":9555,"ĠUpper":9556,"ĠStu":9557,"rite":9558,"ishops":9559,"oking":9560,"Ġclay":9561,"Ġdisband":9562,"Ġapprec":9563,"ibl":9564,"ĠYouth":9565,"aceae":9566,"phoon":9567,"Ġpretty":9568,"Ġupgraded":9569,"Ġevident":9570,"osexual":9571,"Ġcanal":9572,"ansfield":9573,"Ġbuy":9574,"Ġindeed":9575,"Ġpublishing":9576,"Ġ105":9577,"Ġsupplement":9578,"Ġhighways":9579,"ĠZanz":9580,"Ġmainland":9581,"Ġmeters":9582,"Ġrepair":9583,"azer":9584,"aho":9585,"Ġrevol":9586,"Ġdiscussion":9587,"Ġgenera":9588,"ĠClinton":9589,"ĠProte":9590,"Ġweekly":9591,"ycake":9592,"Ġconfront":9593,"incial":9594,"Ġ1922":9595,"Ġtraded":9596,"ĠXII":9597,"ĠWestminster":9598,"Ġconvention":9599,"Ġarriving":9600,"Ġcharted":9601,"Ġjoining":9602,"ĠRegister":9603,"Ġideal":9604,"ĠMagic":9605,"Ġencl":9606,"grad":9607,"brace":9608,"ĠSwitzer":9609,"Ġarmored":9610,"Ġbiological":9611,"Ġobjectives":9612,"Ġnominations":9613,"Ġdispat":9614,"Ġdispers":9615,"Ġkeeping":9616,"Ġinvestigation":9617,"Ġstruggled":9618,"Ġpleasure":9619,"Ġemphasis":9620,"Ġbeliefs":9621,"Ġpulled":9622,"Ġaccomplish":9623,"Ġempire":9624,"Ġchoose":9625,"ĠPattycake":9626,"Ġassembled":9627,"Ġupdated":9628,"ĠARVN":9629,"ĠSioux":9630,"Ġconversation":9631,"Ġdemolished":9632,"howitz":9633,"Ġillegal":9634,"Ġjunior":9635,"Ġphrase":9636,"ĠBennett":9637,"Ġunderwent":9638,"ĠAmanita":9639,"ĠCaesar":9640,"ĠDudley":9641,"ĠChrono":9642,"ĠNevesinje":9643,"ĠDershowitz":9644,"ĠZanzib":9645,"Xe":9646,"dale":9647,"ja":9648,"power":9649,"uzz":9650,"ygen":9651,"zed":9652,"Ġsect":9653,"ito":9654,"itic":9655,"itter":9656,"enger":9657,"Ġfusion":9658,"aria":9659,"Ġban":9660,"Ġpion":9661,"Ġpace":9662,"Ġpages":9663,"icians":9664,"Ġreass":9665,"ĠAf":9666,"Ġthrew":9667,"ĠCart":9668,"Ġlanes":9669,"adi":9670,"acc":9671,"acre":9672,"ĠMall":9673,"ecution":9674,"ĠBird":9675,"ĠIan":9676,"otte":9677,"ĠHur":9678,"ĠHop":9679,"ĠHyd":9680,"ĠPier":9681,"Ġbeings":9682,"Ġwhilst":9683,"ĠWik":9684,"ĠGen":9685,"ĠGael":9686,"ĠEight":9687,"Ġsuit":9688,"ĠKÅį":9689,"Ġshift":9690,"Ġshorter":9691,"Ġsharp":9692,"iper":9693,"Ġresolution":9694,"Ġabilities":9695,"Ġrotation":9696,"luded":9697,"Ġjew":9698,"aceous":9699,"Ġfinale":9700,"ternal":9701,"Ġfeud":9702,"Ġfeeding":9703,"Ġpeoples":9704,"Ġintercept":9705,"Ġacycl":9706,"Ġ127":9707,"rams":9708,"Ġ115":9709,"Ġsignal":9710,"ikk":9711,"ĠIndones":9712,"embers":9713,"Ġcarries":9714,"Ġadvice":9715,"linger":9716,"Ġstring":9717,"Ġpublications":9718,"Ġdeter":9719,"Ġstarring":9720,"ĠMcN":9721,"ĠAndre":9722,"Ġeventual":9723,"Ġpresentation":9724,"ĠWeir":9725,"ĠWithout":9726,"ĠPerform":9727,"Ġelectron":9728,"ĠCountry":9729,"ĠParks":9730,"Ġgenetic":9731,"ĠJackets":9732,"Ġtourist":9733,"ĠKeith":9734,"Ġfacil":9735,"Ġfacility":9736,"Ġreduction":9737,"Ġappointment":9738,"Ġdevast":9739,"Ġrebell":9740,"Ġ1861":9741,"ĠPhilipp":9742,"Ġmerely":9743,"ĠMcCart":9744,"Ġ360":9745,"ĠPohl":9746,"Ġcertainly":9747,"Ġdaughters":9748,"Ġpercentage":9749,"Ġcontroller":9750,"Ġrecovery":9751,"Ġpunishment":9752,"ĠCharlotte":9753,"ĠColumbus":9754,"ĠDefense":9755,"Ġarchitectural":9756,"Ġsoutheastern":9757,"Ġneighb":9758,"Ġceremon":9759,"Ġillustrated":9760,"Ġmeasurements":9761,"ĠBuilding":9762,"ĠArgentine":9763,"Ġadvertis":9764,"ĠUsher":9765,"ĠIdaho":9766,"ĠSweden":9767,"Ġreforms":9768,"ĠObserv":9769,"Ġnegotiations":9770,"ĠAbbey":9771,"Ġcinema":9772,"Ġunnamed":9773,"Ġibis":9774,"ĠWWF":9775,"ĠâĤ¹":9776,"Ġneighborhood":9777,"ĠMitchell":9778,"ĠPreston":9779,"ĠWanderers":9780,"Ġunlikely":9781,"ĠSwitzerland":9782,"RNA":9783,"Tube":9784,"van":9785,"yll":9786,"Ġtelling":9787,"Ġtonn":9788,"inÃ¡":9789,"rehens":9790,"Ġsq":9791,"Ġsoci":9792,"Ġsleep":9793,"isle":9794,"Ġben":9795,"Ġbran":9796,"Ġinher":9797,"asks":9798,"Ġdod":9799,"Ġduration":9800,"Ġhosp":9801,"ĠTan":9802,"ĠTales":9803,"ĠSau":9804,"ĠCad":9805,"ĠCirc":9806,"Ġlover":9807,"Ġloud":9808,"ĠMk":9809,"Ġonwards":9810,"Ġongoing":9811,"Ġgarn":9812,"imer":9813,"imeter":9814,"iga":9815,"terior":9816,"Ġstellar":9817,"ĠRick":9818,"ĠDover":9819,"una":9820,"ĠFood":9821,"ĠWelling":9822,"ĠGill":9823,"ĠLad":9824,"ĠList":9825,"ĠLane":9826,"ĠLessing":9827,"ĠNag":9828,"Ġanime":9829,"riarch":9830,"Ġvs":9831,"Ġvir":9832,"Ġsuicide":9833,"Ġsew":9834,"Ġchain":9835,"Ġchicks":9836,"berry":9837,"Ġcompens":9838,"soft":9839,"oken":9840,"pert":9841,"ĠHealth":9842,"ultan":9843,"Ġmanip":9844,"Ġenemies":9845,"Ġoffering":9846,"ĠYellow":9847,"Ġpref":9848,"lesh":9849,"oyle":9850,"Ġthemed":9851,"Ġdecisions":9852,"Ġ83":9853,"obi":9854,"Ġacute":9855,"ĠJoh":9856,"ucky":9857,"Ġsuppl":9858,"Ġ168":9859,"ĠZh":9860,"Ġ174":9861,"Ġsigns":9862,"ĠIsesi":9863,"asha":9864,"Ġadvoc":9865,"Ġbrigades":9866,"ĠHerald":9867,"ĠHeritage":9868,"ĠChristians":9869,"ĠParamount":9870,"rett":9871,"Ġhelping":9872,"Ġcontrols":9873,"ospel":9874,"Ġhistorically":9875,"Ġsignificance":9876,"Ġreader":9877,"Ġwider":9878,"ĠYouTube":9879,"Ġcircle":9880,"Ġprofession":9881,"ĠMadero":9882,"Ġclosure":9883,"Ġ350":9884,"Ġfundamental":9885,"ĠÃī":9886,"Ġillness":9887,"ĠFeel":9888,"ĠEverton":9889,"Ġdepicting":9890,"ĠInterchange":9891,"ĠHoover":9892,"ĠTwenty":9893,"ĠDelaware":9894,"Ġbatteries":9895,"Ġsevent":9896,"Ġmagnetic":9897,"Ġelevation":9898,"Ġninet":9899,"Ġaggressive":9900,"Ġpatterns":9901,"Ġwaiting":9902,"Ġmobile":9903,"ĠNazi":9904,"ĠProvince":9905,"ĠBelgian":9906,"ĠLeonard":9907,"ĠAlberta":9908,"Ġtravelled":9909,"Ġpregnancy":9910,"ĠWalker":9911,"Ġgravity":9912,"Ġproportion":9913,"ĠToninÃ¡":9914,"penter":9915,"Ġaccompanying":9916,"ĠNadal":9917,"ĠArkansas":9918,"ĠCredits":9919,"ĠStuart":9920,"ĠGaelic":9921,"ĠMcCartney":9922,"60":9923,"CU":9924,"coming":9925,"mont":9926,"where":9927,"Å«":9928,"Ġtut":9929,"Ġwish":9930,"Ġwors":9931,"Ġca":9932,"Ġcategory":9933,"Ġbull":9934,"Ġpseud":9935,"Ġdual":9936,"Ġho":9937,"ĠAh":9938,"ĠSyn":9939,"ĠSydney":9940,"ila":9941,"sters":9942,"ĠCit":9943,"ĠCricket":9944,"ĠCanning":9945,"Ġliv":9946,"aman":9947,"ĠBou":9948,"ĠBuck":9949,"Ġgang":9950,"iger":9951,"ĠPic":9952,"ĠPak":9953,"ĠRu":9954,"ĠRav":9955,"ĠRivers":9956,"ĠDS":9957,"ĠDod":9958,"ĠDick":9959,"ĠDram":9960,"ĠFif":9961,"ĠFalls":9962,"raid":9963,"ĠGot":9964,"osph":9965,"ĠLover":9966,"ĠLiving":9967,"andra":9968,"estyle":9969,"Ġriding":9970,"ĠKate":9971,"ĠKau":9972,"Ġshop":9973,"Ġshirt":9974,"Ġkid":9975,"ĠUtah":9976,"Ġspin":9977,"Ġspots":9978,"ĠVis":9979,"Ġclin":9980,"Ġcler":9981,"endar":9982,"Ġrot":9983,"Ġpermission":9984,"Ġjury":9985,"Ġpartnership":9986,"phant":9987,"Ġshear":9988,"athy":9989,"Ġassess":9990,"ĠSeattle":9991,"Ġaccum":9992,"Ġraising":9993,"aja":9994,"Ġtrapped":9995,"erto":9996,"inners":9997,"Ġ118":9998,"emble":9999,"Ġpassion":10000,"Ġcharacteristic":10001,"ĠAdela":10002,"ĠAllosaurus":10003,"yself":10004,"Ġpromin":10005,"appy":10006,"Ġrefere":10007,"Ġcaps":10008,"Ġhanded":10009,"Ġcommands":10010,"Ġcommanders":10011,"Ġrequires":10012,"Ġsimilarly":10013,"Ġfreedom":10014,"Ġterrain":10015,"hemical":10016,"ĠCentre":10017,"Ġ1902":10018,"Ġdestroyer":10019,"regular":10020,"Ġ1895":10021,"Ġvalues":10022,"Ġfavour":10023,"Ġconnecting":10024,"ĠMadonna":10025,"Ġclosing":10026,"ĠKhan":10027,"ĠCrusad":10028,"Ġdonated":10029,"Ġ1840":10030,"Ġembarked":10031,"Ġindicates":10032,"Ġpairs":10033,"Ġgirls":10034,"Ġconflicts":10035,"Ġpolicies":10036,"Ġconversion":10037,"ĠCritics":10038,"Ġplatoon":10039,"Ġsearching":10040,"Ġcancelled":10041,"Ġconcentrated":10042,"Ġfarmers":10043,"Ġoxygen":10044,"Ġprinted":10045,"Ġuniversities":10046,"Ġpreparing":10047,"Ġsteps":10048,"Ġdoctrine":10049,"Ġmolecular":10050,"ĠDerff":10051,"ĠWatson":10052,"Ġexecution":10053,"ĠHeadquarters":10054,"Ġsubsid":10055,"Ġaimed":10056,"Ġdubbed":10057,"Ġexactly":10058,"ĠBulgar":10059,"Ġhydrogen":10060,"Ġaccurate":10061,"Ġdecorated":10062,"Ê»i":10063,"Ġanticip":10064,"ĠStavanger":10065,"Ġphenomen":10066,"Ġacyclic":10067,"ĠAdelaide":10068,"dream":10069,"har":10070,"nh":10071,"pa":10072,"rad":10073,"Ġwore":10074,"itia":10075,"Ġfru":10076,"Ġfulf":10077,"Ġflesh":10078,"aration":10079,"Ġbanks":10080,"Ġinning":10081,"Ġtouring":10082,"Ġmand":10083,"Ġmental":10084,"Ġdense":10085,"Ġdanger":10086,"ĠhPa":10087,"Ġreop":10088,"Ġreaches":10089,"ĠAle":10090,"ĠAuthor":10091,"street":10092,"Ġlaugh":10093,"Ġnave":10094,"ĠMix":10095,"ĠBorn":10096,"ĠBapt":10097,"ĠBatter":10098,"ĠBoys":10099,"Ġgor":10100,"Ġgift":10101,"olis":10102,"ĠHit":10103,"ĠHNC":10104,"Ġbeating":10105,"Ġbears":10106,"Ġbeats":10107,"ĠRag":10108,"ĠRace":10109,"ĠFut":10110,"ĠFul":10111,"ĠGround":10112,"romet":10113,"Ġanch":10114,"Ġrushing":10115,"Ġseats":10116,"ighters":10117,"atever":10118,"ĠKings":10119,"ova":10120,"asts":10121,"Ġclothes":10122,"Ġabroad":10123,"Ġevolution":10124,"Ġevolved":10125,"oyd":10126,"ilda":10127,"alsa":10128,"ĠArn":10129,"Ġpositively":10130,"ĠLeeds":10131,"Ġ04":10132,"Ġ169":10133,"Ġtransmission":10134,"ramid":10135,"Ġbacking":10136,"ĠZoo":10137,"inness":10138,"Ġmetall":10139,"Ġcontinental":10140,"Ġdistrib":10141,"Ġoperas":10142,"Ġphone":10143,"ĠColl":10144,"ĠChristi":10145,"ĠBeau":10146,"Ġdetected":10147,"issioned":10148,"ĠMcM":10149,"ographical":10150,"Ġfewer":10151,"Ġcrash":10152,"Ġstrongest":10153,"Ġsolution":10154,"ficial":10155,"Ġfriendly":10156,"ĠHarry":10157,"Ġadmin":10158,"Ġfunctions":10159,"Ġtenure":10160,"Ġballad":10161,"Ġmountains":10162,"Ġranks":10163,"ĠMorgan":10164,"Ġanimated":10165,"ĠSerbs":10166,"ĠImport":10167,"Ġirregular":10168,"Ġgolden":10169,"ĠDaydream":10170,"Ġcivilians":10171,"Ġmaintaining":10172,"ĠCorpus":10173,"Ġunclear":10174,"Ġwithdrawn":10175,"ĠDonald":10176,"ĠAngelou":10177,"Ġfailing":10178,"ĠJeremy":10179,"Ġtemperatures":10180,"Ġcredit":10181,"Ġcredits":10182,"Ġlogic":10183,"itchcraft":10184,"Ġpilots":10185,"Ġinteractions":10186,"Ġpursuit":10187,"Ġinternation":10188,"Ġharbour":10189,"Ġcompositions":10190,"ĠHawaiÊ»i":10191,"ĠHalo":10192,"Ġmelody":10193,"ĠFrancis":10194,"Ġrecommend":10195,"ĠBooks":10196,"Ġqualified":10197,"ĠHugh":10198,"ĠNightingale":10199,"Ġprisoners":10200,"ĠReturn":10201,"ĠColdrum":10202,"Ġsolely":10203,"ĠBroadway":10204,"Ġwickets":10205,"ĠWyoming":10206,"Ġsympt":10207,"Ġwealthy":10208,"Ġleukemia":10209,"Ġvegetation":10210,"ĠHungarian":10211,"schild":10212,"ĠDescription":10213,"ĠBaseball":10214,"ĠTigers":10215,"ĠDynasty":10216,"Ġvertex":10217,"ĠFernandez":10218,"Ġashore":10219,"ĠInternet":10220,"Ġtissue":10221,"Ġcousin":10222,"ĠEccl":10223,"ĠDerfflinger":10224,"MA":10225,"bro":10226,"fe":10227,"ht":10228,"mates":10229,"uters":10230,"zer":10231,"Ã¬":10232,"Ġtort":10233,"atom":10234,"orph":10235,"Ġcosm":10236,"eness":10237,"Ġfil":10238,"Ġbon":10239,"Ġpec":10240,"ashes":10241,"Ġhind":10242,"Ġhym":10243,"ĠAA":10244,"ĠShip":10245,"ĠSora":10246,"amer":10247,"ĠMes":10248,"ĠMol":10249,"uras":10250,"Ġgaining":10251,"olence":10252,"ima":10253,"igs":10254,"ĠHad":10255,"uther":10256,"ĠDw":10257,"ĠDot":10258,"ulates":10259,"ĠLibrary":10260,"agi":10261,"oded":10262,"ĠEconom":10263,"ĠOw":10264,"Ġveter":10265,"alling":10266,"Ġchampions":10267,"ĠKody":10268,"Ġplatinum":10269,"Ġshr":10270,"ĠUran":10271,"ourse":10272,"ormal":10273,"Ġresol":10274,"ĠHeavy":10275,"Ġpermitted":10276,"ĠAlmost":10277,"Ġscre":10278,"ricts":10279,"izers":10280,"Ġovers":10281,"Ġacted":10282,"Ġassembly":10283,"anya":10284,"Ġ106":10285,"Ġepic":10286,"Ġsurprise":10287,"tenance":10288,"Ġnumbered":10289,"Ġ167":10290,"itsu":10291,"Ġobtain":10292,"Ġrevival":10293,"ĠMaya":10294,"Ġinflict":10295,"Ġownership":10296,"Ġsimpl":10297,"Ġsuccession":10298,"Ġsuccessive":10299,"Ġrestore":10300,"Ġincreases":10301,"Ġstarter":10302,"Ġreviewed":10303,"ambo":10304,"eltown":10305,"ĠTrond":10306,"Ġcoverage":10307,"Ġexcell":10308,"ĠBarbar":10309,"ĠRomania":10310,"Ġvictim":10311,"iscus":10312,"Ġ1903":10313,"ĠNeil":10314,"Ġcougars":10315,"Ġgoods":10316,"Ġrede":10317,"Ġredes":10318,"Ġballs":10319,"Ġoccurring":10320,"ĠActor":10321,"Ġidentify":10322,"Ġanimation":10323,"Ġ1889":10324,"Ġmeasuring":10325,"Ġpenet":10326,"legraph":10327,"Ġheavier":10328,"Ġcruisers":10329,"ĠAntimony":10330,"underst":10331,"ĠYears":10332,"Ġobservation":10333,"Ġconsistent":10334,"ĠBradstreet":10335,"ĠTrees":10336,"exp":10337,"Ġreinforced":10338,"Ġseriously":10339,"Ġtargets":10340,"Ġlifetime":10341,"Ġgrandfather":10342,"Ġadministrative":10343,"Ġwalking":10344,"ĠAdminist":10345,"Ġwait":10346,"blazer":10347,"Ġdiamond":10348,"ĠJurchens":10349,"Ġparliamentary":10350,"hua":10351,"Ġbeauty":10352,"Ġvirtually":10353,"Ġbowling":10354,"ĠHonor":10355,"Ġpregnant":10356,"Ġsanct":10357,"Ġrelegated":10358,"Ġnoble":10359,"ĠTransportation":10360,"ĠBedell":10361,"Ġappropriate":10362,"ĠHampshire":10363,"ĠRothschild":10364,"ĠArabs":10365,"Ġphotographs":10366,"ĠMantell":10367,"Ġinterpreted":10368,"ĠCyrus":10369,"ĠXIII":10370,"ĠWellington":10371,"Ar":10372,"CW":10373,"ED":10374,"bow":10375,"lights":10376,"zes":10377,"Æ°":10378,"Ġtaste":10379,"inces":10380,"Ġsings":10381,"Ġsized":10382,"Ġsitting":10383,"Ġcode":10384,"Ġcrick":10385,"enous":10386,"Ġfame":10387,"Ġpp":10388,"Ġtours":10389,"roc":10390,"Ġda":10391,"Ġdust":10392,"Ġhills":10393,"stal":10394,"ĠCome":10395,"Ġlad":10396,"Ġlumber":10397,"Ġnaming":10398,"adh":10399,"ĠMas":10400,"ĠMong":10401,"urance":10402,"ĠBoss":10403,"ĠIOC":10404,"Ġgat":10405,"olin":10406,"Ġforg":10407,"ĠHem":10408,"Ġstyl":10409,"ĠPole":10410,"ĠRÃ¤":10411,"ĠData":10412,"emen":10413,"rav":10414,"ĠGw":10415,"osity":10416,"ĠLiter":10417,"ĠLÃ¼":10418,"ĠLooking":10419,"ĠEg":10420,"ĠEst":10421,"ĠEtty":10422,"ifest":10423,"Ġvault":10424,"Ġseized":10425,"ework":10426,"Ġshru":10427,"ĠStop":10428,"arya":10429,"Ġherd":10430,"Ġperceived":10431,"Ġscrap":10432,"Ġjet":10433,"Ġagency":10434,"Ġattitude":10435,"Ġprefect":10436,"Ġconsent":10437,"icking":10438,"Ġcanon":10439,"Ġregistered":10440,"Ġqueen":10441,"Ġrains":10442,"ĠShim":10443,"anka":10444,"rowed":10445,"Ġbacked":10446,"Ġdescript":10447,"Ġdepiction":10448,"ĠShell":10449,"Ġrevived":10450,"Ġcontinuous":10451,"Ġextend":10452,"Ġextinct":10453,"ĠBright":10454,"Ġdownstream":10455,"Ġrunway":10456,"Ġinfection":10457,"Ġsixteen":10458,"Ġgrade":10459,"Ġguides":10460,"Ġvaried":10461,"inae":10462,"Ġbelieving":10463,"Ġexplicit":10464,"Ġengagement":10465,"ĠManuel":10466,"Ġcapturing":10467,"ĠTristan":10468,"Ġhelps":10469,"Ġ230":10470,"Ġ240":10471,"Ġauthorized":10472,"Ġrepresentatives":10473,"ĠHarv":10474,"rieved":10475,"Ġprize":10476,"Ġpitching":10477,"Ġpredict":10478,"Ġpromotional":10479,"Ġcommenting":10480,"Ġaudition":10481,"Ġarmies":10482,"Ġflooded":10483,"ĠChristianity":10484,"ĠGrace":10485,"Ġreactions":10486,"Ġsynagogue":10487,"Ġhoused":10488,"Ġ1849":10489,"Ġparticipate":10490,"ĠTommy":10491,"Ġblocked":10492,"ĠStudies":10493,"abyrin":10494,"ĠCampaign":10495,"ĠCollection":10496,"Ġvotes":10497,"Ġparent":10498,"Ġunderstood":10499,"ĠForeign":10500,"ĠHumph":10501,"Ġmorph":10502,"Ġheroes":10503,"ĠContem":10504,"Ġhabitats":10505,"Ġkilometers":10506,"Ġsecretary":10507,"Ġconstitu":10508,"Ġquestioned":10509,"Ġdisplaced":10510,"ĠRoom":10511,"Ġsporting":10512,"Ġchampionships":10513,"Ġroller":10514,"Ġdeparted":10515,"ĠPalestinian":10516,"Ġresemble":10517,"Ġtasked":10518,"Ġhamper":10519,"ĠBruce":10520,"ĠOhio":10521,"ĠMLB":10522,"Ġpuzzles":10523,"Ġpounder":10524,"ĠLocal":10525,"Ġsuddenly":10526,"Ġbalance":10527,"ĠRhodesian":10528,"ĠMargaret":10529,"ĠJoyful":10530,"Ġclothing":10531,"Ġmanuscripts":10532,"Ġbodyline":10533,"Ġannouncement":10534,"Ġentertainment":10535,"ĠZanzibar":10536,"Ġhospitals":10537,"abyrinth":10538,"CE":10539,"cover":10540,"mn":10541,"uations":10542,"Ä«":10543,"Ġsin":10544,"Ġsib":10545,"Ġwre":10546,"Ġwolf":10547,"itely":10548,"itches":10549,"Ġboot":10550,"Ġpron":10551,"Ġpistol":10552,"asa":10553,"icus":10554,"ĠTroph":10555,"Ġreun":10556,"ĠAub":10557,"ĠSel":10558,"ĠSant":10559,"ilis":10560,"ĠCy":10561,"Ġlumin":10562,"Ġecho":10563,"Ġnit":10564,"ĠMoon":10565,"ĠMorning":10566,"ĠIowa":10567,"Ġgene":10568,"irts":10569,"ĠHom":10570,"ĠHannah":10571,"Ġstabil":10572,"ĠPam":10573,"ĠRaid":10574,"thren":10575,"ĠDress":10576,"ĠDennis":10577,"ĠWrapped":10578,"ĠWrestling":10579,"Ġconce":10580,"ĠLyn":10581,"ĠNM":10582,"ĠNine":10583,"ĠJess":10584,"Ġcomfort":10585,"oping":10586,"Ġrays":10587,"ocy":10588,"ĠKyle":10589,"Ġshrine":10590,"ĠStars":10591,"Ġlect":10592,"apur":10593,"Ġunt":10594,"Ġunst":10595,"ĠVerm":10596,"ĠVeg":10597,"Ġcomponent":10598,"Ġcompilation":10599,"Ġresid":10600,"ĠHeb":10601,"ĠAlg":10602,"Ġscorer":10603,"arest":10604,"ensively":10605,"wegian":10606,"atha":10607,"Ġflies":10608,"Ġendors":10609,"Ġcoaching":10610,"Ġ108":10611,"Ġtranscription":10612,"Ġrecept":10613,"ĠZagre":10614,"Ġmainstream":10615,"Ġ151":10616,"Ġconcession":10617,"Ġobvious":10618,"ĠIsle":10619,"Ġdistances":10620,"Ġdistricts":10621,"Ġinsurg":10622,"ĠBlu":10623,"Ã©d":10624,"Ġbrut":10625,"Ġedited":10626,"ĠBeat":10627,"ĠBeeton":10628,"Ġapproaches":10629,"Ġhumor":10630,"ĠÂµ":10631,"Ġreplied":10632,"ĠCharm":10633,"Ġarchbishop":10634,"Ġspeaker":10635,"Ġconvey":10636,"Ġaffairs":10637,"Ġfactor":10638,"ĠNev":10639,"brush":10640,"Ġrocks":10641,"ĠMonkey":10642,"Ġfavou":10643,"Ġlacking":10644,"Ġzomb":10645,"Ġindustries":10646,"ĠSlayer":10647,"Ġterritorial":10648,"Ġruler":10649,"Ġmultipl":10650,"Ġpersist":10651,"mingham":10652,"Ġmemories":10653,"Ġgrave":10654,"guard":10655,"Ġdenomin":10656,"racks":10657,"ĠInterstate":10658,"Ġceleb":10659,"Ġsalv":10660,"Ġkickoff":10661,"Ġtouchdowns":10662,"Ġpuppet":10663,"ĠHaitian":10664,"Ġrescued":10665,"Ġcandidates":10666,"ĠPopular":10667,"ĠNCAA":10668,"Ġfragment":10669,"ĠBirmingham":10670,"Ġfastest":10671,"ĠCreutz":10672,"Ġteachers":10673,"Ġcomprised":10674,"Ġarrangements":10675,"ĠGregory":10676,"Ġaerodrom":10677,"ĠSkinner":10678,"Ġundertaken":10679,"ĠHellblazer":10680,"Ġdisturbance":10681,"Ġvicinity":10682,"ĠBosn":10683,"Ġjuven":10684,"Ġicon":10685,"Ġdependent":10686,"Ġstrategic":10687,"Ġabsorbed":10688,"Ġflew":10689,"ocaust":10690,"Ġtickets":10691,"ĠPalmyrene":10692,"Ġrestrictions":10693,"Ġmystery":10694,"ĠStaley":10695,"Ã¶nen":10696,"ĠTokyo":10697,"Ġalphab":10698,"Ġmathemat":10699,"ikkÃ¶nen":10700,"ĠEcclestone":10701,"ĠTrondheim":10702,"ĠRÃ¤ikkÃ¶nen":10703,"ĠVegas":10704,"jan":10705,"no":10706,"nall":10707,"ss":10708,"uating":10709,"vent":10710,"zona":10711,"Ġtrough":10712,"inaw":10713,"Ġsweet":10714,"Ġward":10715,"Ġworn":10716,"Ġwrest":10717,"aters":10718,"orage":10719,"ario":10720,"Ġpunt":10721,"rooms":10722,"Ġhitting":10723,"ĠTit":10724,"ĠTong":10725,"ĠTree":10726,"Ġreag":10727,"ĠAges":10728,"ĠSultan":10729,"ĠCurt":10730,"ĠIA":10731,"olics":10732,"idation":10733,"ĠHong":10734,"ĠHair":10735,"ĠPagan":10736,"ĠRat":10737,"ĠRul":10738,"unning":10739,"ĠLess":10740,"ĠLiz":10741,"ĠLoy":10742,"ĠNi":10743,"Ġatop":10744,"ĠJag":10745,"ags":10746,"Ġhearing":10747,"odium":10748,"ĠOst":10749,"Ġvital":10750,"anther":10751,"ocal":10752,"ĠKle":10753,"ĠKrist":10754,"ĠStand":10755,"ĠChan":10756,"ĠVik":10757,"Ġincur":10758,"Ġaboard":10759,"achute":10760,"Ġenorm":10761,"veland":10762,"Ġpoets":10763,"ĠMarie":10764,"Ġrelatives":10765,"Ġacoust":10766,"Ġfourteen":10767,"ĠReagan":10768,"ĠJoint":10769,"Ġlocally":10770,"Ġpopul":10771,"ĠZe":10772,"Ġmaintenance":10773,"Ġ111":10774,"Ġminers":10775,"Ġminimal":10776,"Ġextending":10777,"Ġextensively":10778,"ĠBrack":10779,"tym":10780,"ĠPlaces":10781,"Ġmature":10782,"Ġmatters":10783,"Ġphosph":10784,"Ġbrilliant":10785,"Ġedit":10786,"ĠDead":10787,"Ġjustice":10788,"Ġpossess":10789,"Ġmedal":10790,"Ġdrinking":10791,"Ġopposing":10792,"ĠOrd":10793,"Ġsugar":10794,"luence":10795,"Ġmembrane":10796,"Ġcurved":10797,"Ġbehalf":10798,"Ġmyster":10799,"Ġ220":10800,"Ġ261":10801,"Ġ1901":10802,"Ġ1906":10803,"Ġgenes":10804,"Ġpraising":10805,"ĠFederation":10806,"Ġ1897":10807,"ĠHighland":10808,"Ġcircuit":10809,"Ġaudio":10810,"ĠSerb":10811,"Ġarguing":10812,"Ġcutting":10813,"Ġtraveling":10814,"Ġmachinery":10815,"ĠQuiney":10816,"Ġescaped":10817,"Ġbusinesses":10818,"Ġpeninsula":10819,"Ġchapters":10820,"Ġarchaeologists":10821,"ĠSingh":10822,"ĠMeteorological":10823,"ĠOpera":10824,"Ġobservatory":10825,"Ġconcepts":10826,"Ġconsistently":10827,"Ġbombing":10828,"nyi":10829,"Ġmarketing":10830,"ĠNorwegian":10831,"Ġ1819":10832,"ĠTrue":10833,"Ġexhibition":10834,"Ġuniverse":10835,"Ġrequirements":10836,"ĠSenator":10837,"Ġpictures":10838,"ĠMatthew":10839,"Ġagriculture":10840,"Ġbatsmen":10841,"ĠArizona":10842,"Ġsending":10843,"ĠCambodian":10844,"Ġhoriz":10845,"ĠCleveland":10846,"Ġexclusive":10847,"Ġaerial":10848,"Ġlaboratory":10849,"ĠKennedy":10850,"ĠArchaeological":10851,"ĠPrincess":10852,"Ġliner":10853,"Ġrubber":10854,"ĠHughes":10855,"Ġtalent":10856,"ĠHobbs":10857,"Ġrecurring":10858,"ĠProfessor":10859,"Ġintellectual":10860,"ĠCorbet":10861,"ĠNavar":10862,"Ġcomplimented":10863,"Ġtubes":10864,"Ġconjunction":10865,"ĠBaptist":10866,"Ã¬nh":10867,"Ġcrickets":10868,"ĠZagreb":10869,"EA":10870,"VP":10871,"kes":10872,"parts":10873,"rÃŃ":10874,"time":10875,"Ã¢":10876,"ÉĻ":10877,"ĠÄ":10878,"Ġæ":10879,"Ġath":10880,"iner":10881,"Ġsick":10882,"oric":10883,"Ġcash":10884,"Ġfaster":10885,"Ġing":10886,"Ġinduct":10887,"ali":10888,"ingray":10889,"Ġpushing":10890,"Ġmood":10891,"Ġmyself":10892,"ĠTak":10893,"ĠAud":10894,"ĠSet":10895,"ĠSox":10896,"ĠCu":10897,"ĠCrab":10898,"Ġecc":10899,"aduct":10900,"acon":10901,"ĠMond":10902,"ĠBM":10903,"ĠBox":10904,"Ġascend":10905,"ĠHurricanes":10906,"owed":10907,"ĠRI":10908,"ĠDra":10909,"ĠDance":10910,"ĠDoyle":10911,"ĠFat":10912,"ĠFinn":10913,"ĠFiles":10914,"Ġalive":10915,"ĠLam":10916,"ĠLiao":10917,"ĠNASA":10918,"umi":10919,"ested":10920,"agers":10921,"iller":10922,"Ġdeals":10923,"ĠInvest":10924,"Ġracing":10925,"ocent":10926,"ocation":10927,"Ġexceed":10928,"earing":10929,"Ġspawn":10930,"ipel":10931,"aping":10932,"ĠChampion":10933,"Ġunw":10934,"Ġunrest":10935,"ĠVand":10936,"Ġincom":10937,"Ġcomprom":10938,"Ġintr":10939,"Ġintegr":10940,"Ġclimb":10941,"Ġabuse":10942,"Ġusers":10943,"Ġusual":10944,"Ġapply":10945,"overy":10946,"Ġenforce":10947,"Ġimperial":10948,"kef":10949,"ensus":10950,"Ġcommenced":10951,"Ġsheep":10952,"ribi":10953,"Ġallocated":10954,"Ġcentimetres":10955,"Ġdece":10956,"Ġdecomm":10957,"ĠMarge":10958,"ĠComedy":10959,"ocking":10960,"Ġassert":10961,"ĠSeven":10962,"Ġacceler":10963,"ĠLeices":10964,"ĠLegend":10965,"ĠReines":10966,"Ġtrains":10967,"Ġtrails":10968,"Ġpresents":10969,"Ġ154":10970,"ĠJohnny":10971,"Ġmini":10972,"azing":10973,"Ġcomplement":10974,"Ġcouldn":10975,"Ġdiscont":10976,"Ġoperational":10977,"ĠCarpenter":10978,"Ġprovincial":10979,"ĠPlateau":10980,"ĠCloud":10981,"Ġadvised":10982,"Ġgovernments":10983,"Ġguide":10984,"Ġguarant":10985,"Ġweekend":10986,"ĠGuine":10987,"Ġmargin":10988,"ĠEuropa":10989,"ometric":10990,"Ġportr":10991,"Ġtracked":10992,"Ġexplore":10993,"Ġexploration":10994,"Ġdemon":10995,"Ġlegacy":10996,"Ġcourses":10997,"Ġsoldier":10998,"ĠAssy":10999,"Ġstatements":11000,"Ġobsc":11001,"Ġaffil":11002,"ĠAtlÃ©t":11003,"Ġpredicted":11004,"Ġlacked":11005,"ĠPartington":11006,"Ġargument":11007,"Ġdevice":11008,"Ġmotif":11009,"Ġzinc":11010,"Ġhostile":11011,"ĠCrash":11012,"Ġ1878":11013,"Ġinvestment":11014,"ĠEgyptians":11015,"Ġtransported":11016,"Ġtested":11017,"ĠAnti":11018,"ĠLaure":11019,"Ġautobi":11020,"ĠMetro":11021,"ĠHolocaust":11022,"Ġpresidential":11023,"ĠOperations":11024,"Ġexamination":11025,"ĠTrail":11026,"ĠFinally":11027,"ĠJustin":11028,"ĠSixth":11029,"Ġprecip":11030,"ĠBrenda":11031,"Ġduet":11032,"Ġbeaten":11033,"Ġfamiliar":11034,"Ġcamer":11035,"Ġneighbour":11036,"ĠCommunity":11037,"ĠJosÃ©":11038,"Ġuniversal":11039,"Ġvenue":11040,"Ġtimber":11041,"ĠLucas":11042,"ĠWorks":11043,"ĠKenneth":11044,"Ġhouseholds":11045,"ĠArchaeology":11046,"ĠGraham":11047,"Ġenlar":11048,"Ġimmigration":11049,"ĠFlower":11050,"Ġindigenous":11051,"Ġsteadily":11052,"Ġrenewed":11053,"Ġstere":11054,"ĠRockef":11055,"ĠVulcan":11056,"ĠKyra":11057,"Ġfuneral":11058,"ĠGlobe":11059,"Ġpyramid":11060,"Ġrevenue":11061,"Ġpropaganda":11062,"Ġï»":11063,"Ġtombs":11064,"agoda":11065,"Ġtwentieth":11066,"Ġcontradict":11067,"iblical":11068,"bracelet":11069,"htwald":11070,"ĠUrania":11071,"ĠHumphrey":11072,"ĠContemporary":11073,"ĠAtlÃ©tico":11074,"bal":11075,"gas":11076,"mat":11077,"xim":11078,"Ġtel":11079,"onian":11080,"Ġsav":11081,"eded":11082,"athetic":11083,"orough":11084,"Ġcemetery":11085,"aro":11086,"Ġbeds":11087,"anville":11088,"Ġpink":11089,"Ġmal":11090,"Ġmate":11091,"Ġhi":11092,"Ġreward":11093,"ĠSle":11094,"ĠSymph":11095,"ĠCov":11096,"ĠCry":11097,"Ġeating":11098,"Ġnut":11099,"adic":11100,"ĠMyc":11101,"ĠMission":11102,"Ġgri":11103,"ivation":11104,"terf":11105,"ĠHockey":11106,"Ġstap":11107,"ayne":11108,"ĠPs":11109,"ĠRic":11110,"ĠRaf":11111,"ĠDal":11112,"ĠFried":11113,"ods":11114,"ĠEve":11115,"Ġproceeded":11116,"ifeng":11117,"illas":11118,"oret":11119,"ĠIns":11120,"Ġrivals":11121,"Ġseas":11122,"udo":11123,"ĠKer":11124,"ĠKon":11125,"Ġpled":11126,"Ġplag":11127,"Ġplate":11128,"Ġplacing":11129,"Ġshield":11130,"ĠStat":11131,"osts":11132,"ĠChang":11133,"ogan":11134,"hedruli":11135,"Ġclar":11136,"ĠThai":11137,"Ġ1800":11138,"Ġdisrupt":11139,"Ġjaw":11140,"Ġenvelop":11141,"Ġoffshore":11142,"ĠYam":11143,"anga":11144,"Ġprest":11145,"Ġpole":11146,"issions":11147,"Ġcanals":11148,"Ġretain":11149,"Ġretail":11150,"Ġspeculation":11151,"Ġquad":11152,"Ġquiet":11153,"Ġquoted":11154,"Ġacre":11155,"Ġamid":11156,"Ġ102":11157,"Ġsingers":11158,"ernoot":11159,"Ġ171":11160,"Ġdevelopers":11161,"Ġrepairs":11162,"Ġsmoke":11163,"aze":11164,"Ġcontinu":11165,"Ġmayor":11166,"Ġdistant":11167,"Ġinsects":11168,"ĠBlues":11169,"ĠAustrian":11170,"Ġwarned":11171,"Ġairports":11172,"Ġconstantly":11173,"Ġ131":11174,"ĠColomb":11175,"ĠGuild":11176,"Ġports":11177,"Ġportions":11178,"Ġslopes":11179,"ĠMcK":11180,"Ġtrio":11181,"Ġvisits":11182,"Ġapproaching":11183,"Ġstorylines":11184,"Ġmarking":11185,"Ġlegit":11186,"ĠComputer":11187,"ĠComposition":11188,"ĠCompanies":11189,"Ġmagical":11190,"Ġconvict":11191,"Ġconventional":11192,"Ġreportedly":11193,"Ġposts":11194,"ĠAfricaine":11195,"Äģh":11196,"ĠGlanville":11197,"Ġpriests":11198,"Ġvaluable":11199,"Ġconnections":11200,"Ġstudying":11201,"Ġvolumes":11202,"Ġfunded":11203,"mediate":11204,"ĠPlayers":11205,"Ġpersons":11206,"ĠAgency":11207,"ĠSuperman":11208,"Ġthreats":11209,"Ġbreaks":11210,"Ġminority":11211,"Ġautumn":11212,"Ġhappen":11213,"ĠFranklin":11214,"ĠRussell":11215,"awny":11216,"Ġtalks":11217,"Ġcelebrate":11218,"Ġsexuality":11219,"ĠKaifeng":11220,"ĠFerd":11221,"Ġconcentration":11222,"laimed":11223,"Ġhomosexual":11224,"Ġvoices":11225,"ĠKeys":11226,"ĠVillaret":11227,"ĠLloyd":11228,"Ġhorror":11229,"ĠRailroad":11230,"ĠAlfa":11231,"Ġcalculated":11232,"Ġflagship":11233,"ĠMovie":11234,"ĠBernard":11235,"Ġsponsored":11236,"Ġignored":11237,"Ġwicket":11238,"ĠRemix":11239,"ĠLancaster":11240,"Ġchallenging":11241,"Ġexhausted":11242,"Ġabsolute":11243,"Ġinaugural":11244,"Ġdensity":11245,"Ġtributaries":11246,"Ġdivorce":11247,"arthy":11248,"ĠMachine":11249,"ĠCecil":11250,"Ġcondemned":11251,"ĠATP":11252,"ĠBanksia":11253,"ĠPirates":11254,"ĠCantrell":11255,"ĠMkhedruli":11256,"Ġscreens":11257,"ĠTrophy":11258,"ĠHebrew":11259,"ĠCharmbracelet":11260,"ĠNavarro":11261,"ĠVandernoot":11262,"Ġï»¿":11263,"OM":11264,"Sh":11265,"aud":11266,"bi":11267,"dict":11268,"eh":11269,"fish":11270,"gud":11271,"iors":11272,"nik":11273,"pet":11274,"sis":11275,"wall":11276,"Æ¡":11277,"Ġà":11278,"Ġtorn":11279,"Ġtasks":11280,"Ġaf":11281,"Ġsaint":11282,"Ġsoph":11283,"Ġwaves":11284,"atra":11285,"itis":11286,"itudes":11287,"isen":11288,"isations":11289,"arius":11290,"Ġindu":11291,"Ġpin":11292,"asco":11293,"icism":11294,"Ġdying":11295,"ĠTell":11296,"ĠTide":11297,"Ġrejo":11298,"ĠAirc":11299,"ĠSug":11300,"ĠSina":11301,"ĠSaf":11302,"ĠMVP":11303,"ĠBes":11304,"ĠBilly":11305,"Ġgentle":11306,"igious":11307,"ĠHod":11308,"ĠHub":11309,"ĠFord":11310,"ĠFull":11311,"ĠFaul":11312,"raits":11313,"ĠGran":11314,"ĠGiel":11315,"osy":11316,"ĠLt":11317,"andal":11318,"Ġheir":11319,"rix":11320,"ĠEug":11321,"ĠOak":11322,"ĠOcc":11323,"Ġventure":11324,"Ġexecut":11325,"ĠUk":11326,"ĠUy":11327,"oves":11328,"ĠStill":11329,"Ġspo":11330,"Ġspore":11331,"ĠChand":11332,"Ġunless":11333,"ĠVist":11334,"Ġclergy":11335,"orms":11336,"Ġreconc":11337,"Ġscen":11338,"place":11339,"Ġmanage":11340,"ibilities":11341,"Ġenroll":11342,"Ġattorney":11343,"Ġfinest":11344,"rible":11345,"Ġcentered":11346,"Ġremind":11347,"Ġknocked":11348,"Ġdecide":11349,"Ġundergo":11350,"ĠCommer":11351,"Ġcolours":11352,"Ġbuoys":11353,"Ġdozen":11354,"Ġnoise":11355,"Ġsurpass":11356,"Ġ129":11357,"Ġpreserve":11358,"Ġpresbyter":11359,"Ġmonit":11360,"Ġ116":11361,"Ġteammate":11362,"iko":11363,"ĠBrun":11364,"ĠBristol":11365,"ĠIsles":11366,"uedoc":11367,"ĠAustro":11368,"ĠAustria":11369,"Ġshipments":11370,"Ġairfield":11371,"Ġ135":11372,"Ġpassages":11373,"ĠClocks":11374,"ĠAdult":11375,"Ġvariations":11376,"Ġmarch":11377,"aiman":11378,"ĠYorkshire":11379,"Ġprogressed":11380,"Ġdrivers":11381,"Ġantagon":11382,"Ġreplacing":11383,"Ġtraditions":11384,"Ġsimilarities":11385,"Ġroadway":11386,"Ġpoliticians":11387,"ĠTelegraph":11388,"Ġstronger":11389,"Ġsurvival":11390,"ĠElgin":11391,"Ġ1904":11392,"ĠNeolithic":11393,"ĠExper":11394,"Ġbattlefield":11395,"Ġgrows":11396,"ĠActress":11397,"Ġ1857":11398,"ĠBerhtwald":11399,"Ġimprovement":11400,"Ġdevoted":11401,"ĠÃĨ":11402,"Ġtravels":11403,"ĠMcCarthy":11404,"ĠSmall":11405,"Ġlyrical":11406,"Ġtruly":11407,"Ġphysics":11408,"Ġgraduate":11409,"Ġmemorable":11410,"ĠCatholics":11411,"ĠStudio":11412,"Ġflows":11413,"Ġhoping":11414,"Ġcollections":11415,"Ġsalary":11416,"ĠCommandos":11417,"Ġintersects":11418,"Ġessay":11419,"Ġessentially":11420,"Ġduo":11421,"Ġemotions":11422,"ĠAviation":11423,"Ġdynamic":11424,"ĠLarry":11425,"bourne":11426,"Ġpermanently":11427,"ĠDestroy":11428,"ĠBhair":11429,"Ġfragments":11430,"Ġbelonging":11431,"ĠUlster":11432,"Ġmicroscop":11433,"Ġboyfriend":11434,"Ġimagery":11435,"Ġhamlet":11436,"Ġmoist":11437,"Ġreflecting":11438,"Ġoccasional":11439,"Ġstretched":11440,"Ġvertices":11441,"Ġhypothes":11442,"ĠQedarites":11443,"Ġrepeatedly":11444,"Ġlinear":11445,"ĠGanges":11446,"Ġexperimental":11447,"Ġloved":11448,"ĠRonald":11449,"Ġsurrendered":11450,"Ġpuzzle":11451,"Ġurged":11452,"Ġindigo":11453,"Ġconsumption":11454,"ĠRajam":11455,"Ġdiplomatic":11456,"Ġjackrabbit":11457,"ĠLanguedoc":11458,"oplasm":11459,"ĠCPS":11460,"Ġcooperation":11461,"ĠWNO":11462,"ĠNelson":11463,"ĠMcEl":11464,"ĠFreakum":11465,"Ġdeterior":11466,"ĠPerformance":11467,"ĠLoverboy":11468,"Ġgathered":11469,"ĠAuburn":11470,"ĠRuler":11471,"ĠLeicester":11472,"ĠRockefeller":11473,"ĠSinai":11474,"ĠFaulk":11475,"ĠGielgud":11476,"case":11477,"cially":11478,"die":11479,"eu":11480,"found":11481,"lane":11482,"mad":11483,"oided":11484,"saku":11485,"Ġurg":11486,"ĨĴ":11487,"Ġton":11488,"Ġtape":11489,"oni":11490,"reated":11491,"Ġsic":11492,"Ġstern":11493,"Ġsacked":11494,"atch":11495,"ituals":11496,"Ġcy":11497,"Ġcards":11498,"isa":11499,"isons":11500,"anelli":11501,"Ġpill":11502,"Ġpush":11503,"Ġtools":11504,"rov":11505,"Ġmit":11506,"Ġmild":11507,"Ġdressed":11508,"ĠTar":11509,"ĠTow":11510,"Ġrever":11511,"ĠAy":11512,"ĠSout":11513,"entine":11514,"ĠCG":11515,"ĠCret":11516,"omic":11517,"ams":11518,"Ġnavy":11519,"Ġnaked":11520,"ache":11521,"ĠMh":11522,"ĠMole":11523,"ĠBod":11524,"ĠBour":11525,"ĠBelt":11526,"ivan":11527,"irty":11528,"igadier":11529,"ĠHarm":11530,"ĠHoll":11531,"Ġstick":11532,"Ġstability":11533,"Ġstanz":11534,"ĠProp":11535,"ĠPink":11536,"ĠDE":11537,"ĠFast":11538,"Ġalg":11539,"ĠWed":11540,"ĠWant":11541,"ĠWorth":11542,"ĠGri":11543,"ĠGack":11544,"ĠLem":11545,"odox":11546,"ĠEarn":11547,"Ġvig":11548,"illes":11549,"akim":11550,"ante":11551,"ocese":11552,"ĠKo":11553,"ĠâĨĴ":11554,"Ġshallow":11555,"ĠâĢ¦":11556,"season":11557,"ĠStaff":11558,"asted":11559,"Ġspan":11560,"geon":11561,"ounced":11562,"ĠVa":11563,"Ġcompan":11564,"ruption":11565,"Ġadequ":11566,"ĠHein":11567,"ricus":11568,"Ġdisgu":11569,"Ġjunction":11570,"ĠYang":11571,"enson":11572,"ugs":11573,"Ġverses":11574,"Ġsubord":11575,"hesh":11576,"ĠLead":11577,"ĠLeban":11578,"ĠScout":11579,"ĠScots":11580,"Ġexpand":11581,"Ġinvent":11582,"Ġopined":11583,"ylogen":11584,"Ġdirecting":11585,"ĠWhit":11586,"Ġlandmark":11587,"ĠDevin":11588,"Ġpublicly":11589,"Ġconfusion":11590,"Ġdestination":11591,"ĠWeather":11592,"Ġmagic":11593,"Ġaviation":11594,"Ġavoided":11595,"Ġinvolves":11596,"Ġafford":11597,"Ġplanes":11598,"Ġplanets":11599,"Ġgenu":11600,"Ġfriendship":11601,"Ġlimits":11602,"Ġbarrier":11603,"ĠGlass":11604,"Ġnightingale":11605,"Ġfunny":11606,"ĠExpl":11607,"Ġsummar":11608,"Ġsword":11609,"Ġprocessing":11610,"Ġacceptable":11611,"ĠRepresent":11612,"Ġceased":11613,"Ġdraws":11614,"Ġnarrator":11615,"Ġemployment":11616,"boro":11617,"Ġviolation":11618,"ĠMontreal":11619,"Ġgrain":11620,"enesis":11621,"Ġ1848":11622,"Ġdealing":11623,"Ġcomplicated":11624,"Ġscreened":11625,"Ġlinks":11626,"ĠBradman":11627,"Ġdedication":11628,"ĠFormation":11629,"Ġambassador":11630,"ĠRobinson":11631,"ĠMillennium":11632,"ĠLoose":11633,"Ġkicked":11634,"Ġangle":11635,"Ġseemingly":11636,"Ġdisappeared":11637,"ĠJimmy":11638,"Ġremarkable":11639,"Ġmanufacturing":11640,"Ġopinions":11641,"Ġbattleship":11642,"Ġtunnels":11643,"Ġperfectly":11644,"Ġmythology":11645,"Ġsufficiently":11646,"Ġevacuated":11647,"ĠAntonio":11648,"Ġrelegation":11649,"Ġrectangular":11650,"Ġprice":11651,"Ġshifted":11652,"Ġsweep":11653,"Ġaccommodate":11654,"Ġprohibited":11655,"Ġsongwriter":11656,"ĠCultural":11657,"Ġdevotion":11658,"Ġbombardment":11659,"ĠYugoslavia":11660,"Ġpredominantly":11661,"Ġsubstance":11662,"Ġfertil":11663,"Ġdrainage":11664,"Ġisotopes":11665,"ĠMaurice":11666,"Ġamphib":11667,"Ġbombs":11668,"ĠKÅįsaku":11669,"Ġtonnes":11670,"Ġgarnered":11671,"Ġsymptoms":11672,"ĠBarbarian":11673,"ĠShimomura":11674,"Ġsiblings":11675,"ĠNevada":11676,"Ġenormous":11677,"Ġathlete":11678,"ĠAircraft":11679,"ĠFaulkner":11680,"ĠCretaceous":11681,"ĠGacko":11682,"aels":11683,"budo":11684,"gom":11685,"ho":11686,"hous":11687,"ko":11688,"rino":11689,"uen":11690,"zing":11691,"Ġion":11692,"Ġtent":11693,"inisc":11694,"Ġther":11695,"rez":11696,"itious":11697,"Ġcavalry":11698,"enged":11699,"Ġfier":11700,"Ġfires":11701,"Ġbold":11702,"roke":11703,"Ġmg":11704,"Ġdrift":11705,"ourag":11706,"ĠTz":11707,"Ġreper":11708,"ĠSac":11709,"ĠSter":11710,"ĠSite":11711,"ĠSax":11712,"Ġthro":11713,"ĠCN":11714,"ĠCow":11715,"omyc":11716,"Ġlying":11717,"Ġnep":11718,"ĠMend":11719,"ĠMile":11720,"urers":11721,"ĠBoot":11722,"ĠBeth":11723,"ĠBÃ¬nh":11724,"ĠIR":11725,"Ġgender":11726,"irm":11727,"usan":11728,"uskh":11729,"ĠPok":11730,"ĠDays":11731,"ĠFr":11732,"Ġbypass":11733,"ĠWu":11734,"ĠWell":11735,"ĠWisc":11736,"ĠWitchcraft":11737,"ĠGamb":11738,"Ġitem":11739,"ums":11740,"umph":11741,"ĠJar":11742,"avan":11743,"ĠEP":11744,"Ġveloc":11745,"Ġrushed":11746,"abl":11747,"ques":11748,"iph":11749,"apa":11750,"ĠChop":11751,"ounters":11752,"Ġcomprehens":11753,"Ġcomputers":11754,"Ġheritage":11755,"Ġabn":11756,"achment":11757,"Ġdesper":11758,"phone":11759,"Ġeval":11760,"Ġweigh":11761,"onsin":11762,"Ġcolors":11763,"Ġreleasing":11764,"Ġmovies":11765,"rosaurus":11766,"ĠShaw":11767,"Ġpopulated":11768,"Ġ172":11769,"Ġ173":11770,"Ġextends":11771,"ĠBrigades":11772,"ĠConstitution":11773,"Ġimposed":11774,"Ġmilk":11775,"ullivan":11776,"Ġwarn":11777,"Ġwarfare":11778,"Ġadvances":11779,"Ġgoverned":11780,"Ġvaries":11781,"Ġvariable":11782,"Ġhalted":11783,"Ġdemanded":11784,"ĠBrother":11785,"Ġexperts":11786,"ĠXook":11787,"ĠXbox":11788,"Ġrealised":11789,"Ġelectrical":11790,"Ġcompetitive":11791,"Ġterr":11792,"ĠEdge":11793,"Ġlimestone":11794,"Ġboil":11795,"ÃŃn":11796,"ĠSword":11797,"ĠMonth":11798,"Ġ1854":11799,"Ġ1856":11800,"ĠBerg":11801,"ĠImbudo":11802,"Ġimprovements":11803,"ĠMedal":11804,"Ġcuts":11805,"ĠÃį":11806,"Ġmerc":11807,"Ġlearns":11808,"ĠMontfort":11809,"Ġcaliber":11810,"ĠPoet":11811,"Ġcyclones":11812,"ouli":11813,"ĠMahesh":11814,"Ġparticipants":11815,"ĠFilming":11816,"ĠFIT":11817,"ĠPete":11818,"owski":11819,"ĠMalays":11820,"Ġlandscape":11821,"ĠJulian":11822,"Ġwalks":11823,"Ġweakening":11824,"Ġofferings":11825,"ĠTodd":11826,"Ġalternate":11827,"Ġdefender":11828,"ĠDefence":11829,"Ġgrasses":11830,"Ġsacrif":11831,"ĠSenate":11832,"Ġspotted":11833,"Ġsensitive":11834,"aturally":11835,"Ġcollaborated":11836,"ĠGarden":11837,"ĠLiberal":11838,"ĠGabri":11839,"Ġpetition":11840,"ĠRaymond":11841,"Ġoptions":11842,"Ġcabinet":11843,"Ġhighlighted":11844,"Ġimmigrants":11845,"Ġlicens":11846,"ĠNapole":11847,"ĠOfficial":11848,"Ġchallenges":11849,"ĠTechnology":11850,"urrently":11851,"ĠNicholas":11852,"ĠCombat":11853,"Ġsurprised":11854,"Ġhelicopter":11855,"Ġrelieved":11856,"ĠGladstone":11857,"Ġvulner":11858,"ĠPfaster":11859,"Ġsupreme":11860,"Ġdeliberately":11861,"Ġtherapy":11862,"ĠBeginning":11863,"Ġhygromet":11864,"Ġliquid":11865,"Ġdisbanded":11866,"ĠWikiped":11867,"ĠPakistan":11868,"ĠDwight":11869,"Æ°Æ¡":11870,"Ġacoustic":11871,"Ġinducted":11872,"Ġdecommissioned":11873,"ĠUygh":11874,"ĠEarnest":11875,"uskhuri":11876,"ĠWisconsin":11877,"Æ°Æ¡ng":11878,"bits":11879,"even":11880,"say":11881,"Ġtawny":11882,"Ġoct":11883,"orf":11884,"Ġcats":11885,"Ġcattle":11886,"enburg":11887,"Ġfart":11888,"Ġbol":11889,"Ġinver":11890,"aliation":11891,"inge":11892,"Ġpian":11893,"Ġpaying":11894,"Ġmud":11895,"Ġmentions":11896,"Ġdawn":11897,"Ġdancing":11898,"ĠTun":11899,"ĠTotal":11900,"ĠAL":11901,"ĠAN":11902,"ĠAction":11903,"ĠSey":11904,"ĠSMS":11905,"sts":11906,"Ġlig":11907,"Ġlie":11908,"Ġnic":11909,"ĠMP":11910,"ĠMembers":11911,"Ġgran":11912,"Ġgusts":11913,"etheless":11914,"idance":11915,"Ġforb":11916,"oting":11917,"Ġaside":11918,"ĠHi":11919,"usa":11920,"Ġstall":11921,"ayan":11922,"ĠPil":11923,"ĠDian":11924,"Ġisn":11925,"ĠFund":11926,"ĠWas":11927,"ĠWard":11928,"ĠWald":11929,"ĠGross":11930,"oso":11931,"ĠLin":11932,"ĠLear":11933,"ĠLoren":11934,"ĠNa":11935,"ĠNu":11936,"ĠNik":11937,"ĠNuskhuri":11938,"umble":11939,"ĠEc":11940,"Ġdeer":11941,"Ġdealt":11942,"Ġrush":11943,"Ġrituals":11944,"Ġchanc":11945,"ĠKub":11946,"ĠKatherine":11947,"Ġshall":11948,"ĠStakes":11949,"ĠStyle":11950,"ĠStrapping":11951,"Ġyd":11952,"ĠVishn":11953,"Ġbutt":11954,"sole":11955,"Ġintact":11956,"Ġclust":11957,"assed":11958,"Ġresur":11959,"Ġperception":11960,"lando":11961,"izer":11962,"Ġplayable":11963,"Ġaftermath":11964,"iban":11965,"Ġenabled":11966,"ressions":11967,"angle":11968,"Ġattending":11969,"Ġoutstanding":11970,"Ġpret":11971,"Ġsecular":11972,"Ġreminisc":11973,"Ġknee":11974,"icken":11975,"ĠEnergy":11976,"Ġspeculated":11977,"Ġaccus":11978,"Ġinterc":11979,"ĠLevel":11980,"Ġ109":11981,"Ġentert":11982,"Ġ1200":11983,"Ġtransformed":11984,"Ġaddressed":11985,"Ġdescent":11986,"Ġinvaded":11987,"Ġmetric":11988,"Ġministers":11989,"Ġextant":11990,"ashire":11991,"ĠSpe":11992,"Ġadventures":11993,"Ġheading":11994,"ĠAdri":11995,"Ġguerr":11996,"Ġguidance":11997,"Ġpromise":11998,"ĠGuinness":11999,"ĠParanth":12000,"ĠOrlando":12001,"ĠTrinity":12002,"beat":12003,"Ġtempo":12004,"Ġeld":12005,"ĠAmyl":12006,"Ġcommunist":12007,"Ġmyel":12008,"Ġcompeted":12009,"Ġarrives":12010,"escope":12011,"Ġskill":12012,"Ġaffect":12013,"Ġpressed":12014,"Ġdivines":12015,"ĠBlacks":12016,"ĠBlackie":12017,"Ġcasting":12018,"ĠHarris":12019,"Ġlawyer":12020,"Ġdeclaring":12021,"Ġ1894":12022,"Ġ1898":12023,"Ġconnects":12024,"Ġcircular":12025,"ĠMoro":12026,"Ġcommentary":12027,"Ġ1851":12028,"Ġrecognize":12029,"Ġestimate":12030,"ĠBergen":12031,"Ġ1881":12032,"Ġfloods":12033,"ĠMontgom":12034,"Ġuncle":12035,"Ġ1832":12036,"Ġrape":12037,"ĠNote":12038,"ĠVargas":12039,"Ġapartment":12040,"ĠGreatest":12041,"Ġcasem":12042,"ĠTerry":12043,"Ġconcerning":12044,"ĠRhode":12045,"Ġexamined":12046,"Ġflowers":12047,"Ġlabour":12048,"ĠHumpty":12049,"ĠLoch":12050,"umbered":12051,"umberland":12052,"ĠPitts":12053,"Ġcrowds":12054,"ĠFerr":12055,"ĠAttack":12056,"ĠReviews":12057,"Ġqualifying":12058,"Ġportrayal":12059,"ĠColonies":12060,"Ġexhibited":12061,"Ġdissipating":12062,"Ġthirteen":12063,"ĠRetrieved":12064,"Ġcomprising":12065,"ĠApart":12066,"ĠDerby":12067,"ĠNazaire":12068,"ĠDarwin":12069,"Ġ737":12070,"ĠGabbar":12071,"ĠMotor":12072,"ĠMariah":12073,"ĠWallace":12074,"Ġaltarpiece":12075,"ÅĤaw":12076,"Ġsubtropical":12077,"ĠGanganelli":12078,"ĠBrazilian":12079,"ĠKatia":12080,"ĠPuerto":12081,"Ġvolunteers":12082,"Ġblend":12083,"ĠPersonal":12084,"Ġrecreational":12085,"ĠPAVN":12086,"ĠLancashire":12087,"Ġpreceding":12088,"Ġexhaust":12089,"Ġdiverse":12090,"Ġinterpretation":12091,"Ġoverwhelming":12092,"Ġmerchant":12093,"Ġreservoirs":12094,"Ġconspir":12095,"Ġcategories":12096,"ĠTaxonomy":12097,"Ġrebellion":12098,"Ġinternationally":12099,"expected":12100,"ĠÂµm":12101,"ĠBracknell":12102,"Ġmysterious":12103,"ĠGuinea":12104,"ĠRajamouli":12105,"ĠMcElroy":12106,"ĠMhalsa":12107,"ĠÃįmar":12108,"Ġhygrometricus":12109,"ĠParanthodon":12110,"ĠMontgomery":12111,"bach":12112,"ked":12113,"lide":12114,"mem":12115,"mers":12116,"pack":12117,"pike":12118,"taker":12119,"uber":12120,"wa":12121,"Äĥ":12122,"ĠØ":12123,"Ġarose":12124,"Ġthesis":12125,"erb":12126,"Ġwished":12127,"Ġwonder":12128,"atters":12129,"Ġcu":12130,"Ġcel":12131,"Ġcakes":12132,"Ġfest":12133,"esque":12134,"Ġbin":12135,"Ġbron":12136,"aland":12137,"Ġpig":12138,"Ġmos":12139,"Ġdad":12140,"Ġhockey":12141,"ĠTat":12142,"ĠTalk":12143,"Ġreh":12144,"Ġreverse":12145,"ĠSit":12146,"ĠSNL":12147,"ĠSullivan":12148,"entin":12149,"iland":12150,"ĠCadmium":12151,"eling":12152,"Ġnose":12153,"ĠMail":12154,"ĠBry":12155,"ĠBased":12156,"olar":12157,"olph":12158,"igon":12159,"tery":12160,"tering":12161,"ĠHosp":12162,"usade":12163,"Ġstalk":12164,"ĠPel":12165,"ĠPra":12166,"ĠPand":12167,"ĠPast":12168,"ĠRand":12169,"ĠDoc":12170,"ĠDÃŃ":12171,"ĠDawn":12172,"ĠFather":12173,"Ġalignment":12174,"ĠWave":12175,"Ġconform":12176,"Ġconven":12177,"ĠGene":12178,"ĠNEA":12179,"ctic":12180,"istical":12181,"odont":12182,"ĠdeGrom":12183,"pts":12184,"ĠKan":12185,"ĠKal":12186,"quis":12187,"quest":12188,"ovil":12189,"ovac":12190,"ĠStart":12191,"Ġleagues":12192,"apter":12193,"apolis":12194,"Ġunre":12195,"Ġunexpected":12196,"Ġincred":12197,"Ġdislik":12198,"izong":12199,"Ġjur":12200,"Ġpartners":12201,"Ġages":12202,"overed":12203,"Ġouts":12204,"intage":12205,"Ġconservative":12206,"ĠArcher":12207,"Ġasserted":12208,"ĠSean":12209,"ĠLein":12210,"Ġcoat":12211,"Ġcoaster":12212,"Ġindirect":12213,"Ġ103":12214,"Ġtransits":12215,"Ġinvitation":12216,"Ġ152":12217,"Ġmetaph":12218,"Ġrepet":12219,"Ġextr":12220,"Ġimpressive":12221,"Ġinsisted":12222,"ĠBloom":12223,"Ġthoughts":12224,"ĠSpir":12225,"Ġadvent":12226,"Ġbrings":12227,"ĠForb":12228,"Ġbatting":12229,"Ġprotesters":12230,"Ġmarched":12231,"racted":12232,"Ġslave":12233,"Ġparad":12234,"Ġbread":12235,"Ġorganic":12236,"ĠTherefore":12237,"Ġdebt":12238,"Ġrealistic":12239,"ĠBaron":12240,"Ġpositioned":12241,"ĠParker":12242,"Ġstatue":12243,"Ġinvolve":12244,"Ġwanting":12245,"ĠDavies":12246,"Ġsituations":12247,"Ġordinary":12248,"Ġgenres":12249,"Ġlights":12250,"Ġradius":12251,"Ġdestroying":12252,"Ġtourists":12253,"Ġ1891":12254,"Ġmounts":12255,"ĠMonten":12256,"ommun":12257,"Ġcommerce":12258,"Ġcommercially":12259,"ĠMedieval":12260,"Ġ1882":12261,"Ġcease":12262,"Ġdrawings":12263,"Ġzones":12264,"Ġhosts":12265,"Ġ1865":12266,"ĠCrim":12267,"ĠÃħ":12268,"Ġresponses":12269,"ĠQuinn":12270,"Ġhonours":12271,"Ġinterviews":12272,"Ġinterviewed":12273,"Ġreactor":12274,"Ġeducational":12275,"ĠArtist":12276,"Ġoccupy":12277,"ragon":12278,"backs":12279,"ĠTerrorist":12280,"Ġensemble":12281,"Ġscripts":12282,"Ġcounteratt":12283,"Ġloop":12284,"Ġprinciple":12285,"Ġlayers":12286,"Ġgraphic":12287,"Ġpaths":12288,"Ġconfirm":12289,"Ġangry":12290,"Ġjumping":12291,"Ġemotion":12292,"Ġelevated":12293,"Ġeleventh":12294,"Ġfarming":12295,"Ġtorpedoes":12296,"Ġratio":12297,"lamation":12298,"Ġweakness":12299,"Ġfears":12300,"Ġscholarship":12301,"ĠLlosa":12302,"ĠDenmark":12303,"Ġhonorary":12304,"Ġpulp":12305,"Ġaccomplished":12306,"Ġeliminate":12307,"Ġplatforms":12308,"Ġwitnesses":12309,"Ġdecrease":12310,"Ġtravelling":12311,"ĠStewie":12312,"ĠYeovil":12313,"Ġinstrumental":12314,"Ġrevolutionary":12315,"ĠChronicle":12316,"ĠElectronic":12317,"Ġorchestra":12318,"Ġteachings":12319,"ĠGibson":12320,"Ġanswer":12321,"Ġastronomers":12322,"Ġframework":12323,"Ġdinosaurs":12324,"Ġloyal":12325,"ĠCobra":12326,"ĠMcLaren":12327,"Ġacknowledged":12328,"Ġreversed":12329,"Ġsupernatural":12330,"ĠJenkins":12331,"Ġbattlecruisers":12332,"Ġinhabited":12333,"Ġcoffee":12334,"Ġsemifinals":12335,"Ġpione":12336,"Ġadvertisements":12337,"ĠFifth":12338,"ĠBattery":12339,"Ġredesign":12340,"Ġhampered":12341,"ĠAlgernon":12342,"ipelago":12343,"ĠRafael":12344,"ĠFastra":12345,"Ġvelocity":12346,"ĠDÃŃaz":12347,"40":12348,"BO":12349,"ele":12350,"fl":12351,"gs":12352,"hand":12353,"iÃ¨":12354,"jib":12355,"vy":12356,"Ã´":12357,"herent":12358,"Ġaided":12359,"inand":12360,"onation":12361,"onso":12362,"Ġol":12363,"Ġwinners":12364,"Ġcro":12365,"Ġcable":12366,"Ġfed":12367,"Ġfab":12368,"Ġfiled":12369,"arr":12370,"Ġbath":12371,"Ġboss":12372,"Ġbills":12373,"Ġpuma":12374,"ĠTag":12375,"ĠTang":12376,"ĠTob":12377,"ĠTai":12378,"ĠTuck":12379,"ĠAw":12380,"ĠAx":12381,"ĠAff":12382,"ĠSic":12383,"ĠSour":12384,"Ġthrown":12385,"stown":12386,"stapp":12387,"Ġeagle":12388,"Ġwaste":12389,"ĠMint":12390,"ĠMaid":12391,"ĠMaj":12392,"uru":12393,"Ġgam":12394,"Ġgospel":12395,"idated":12396,"idia":12397,"igible":12398,"Ġasc":12399,"ĠHend":12400,"ĠHang":12401,"Ġstaged":12402,"Ġstaying":12403,"Ġstorage":12404,"ĠPa":12405,"ĠPesh":12406,"ĠRal":12407,"ĠRut":12408,"ĠRub":12409,"ĠRNA":12410,"thi":12411,"emark":12412,"Ġwhatever":12413,"Ġalco":12414,"ĠWol":12415,"Ġconceived":12416,"Ġconsole":12417,"riors":12418,"ĠInside":12419,"Ġramp":12420,"Ġchord":12421,"abad":12422,"berger":12423,"Ġexem":12424,"Ġexterior":12425,"ĠKaiman":12426,"Ġspar":12427,"Ġspell":12428,"Ġspelling":12429,"ostere":12430,"ĠChu":12431,"Ġuncon":12432,"ĠVI":12433,"ĠVe":12434,"ĠVo":12435,"ĠVoyage":12436,"Ġinteg":12437,"oulder":12438,"Ġherb":12439,"Ġrout":12440,"ĠThomp":12441,"rice":12442,"lude":12443,"Ġdesired":12444,"Ġenact":12445,"keeper":12446,"angel":12447,"Ġoutd":12448,"Ġcentres":12449,"iousness":12450,"issart":12451,"Ġfeared":12452,"ailing":12453,"Ġtrunk":12454,"othic":12455,"Ġrelax":12456,"Ġmeat":12457,"Ġsubd":12458,"Ġsuburb":12459,"ĠNewport":12460,"Ġcoined":12461,"rosaur":12462,"ucks":12463,"Ġfounding":12464,"Ġblamed":12465,"Ġdeputy":12466,"Ġstudios":12467,"Ġ156":12468,"Ġopens":12469,"ĠAftermath":12470,"uchi":12471,"Ġdeveloper":12472,"Ġdevelopments":12473,"Ġconclus":12474,"ĠIndies":12475,"Ġdistort":12476,"Ġprovision":12477,"Ġsixty":12478,"Ġadvocated":12479,"Ġelephant":12480,"Ġgoverning":12481,"Ġannoy":12482,"ĠNorthumberland":12483,"mede":12484,"ĠJanet":12485,"ĠBeing":12486,"Ġlasting":12487,"Ġconfron":12488,"Ġconfused":12489,"arnation":12490,"plex":12491,"Ġprogression":12492,"incl":12493,"Ġhandle":12494,"Ġmarkets":12495,"Ġdebated":12496,"ĠTrad":12497,"Ġexciting":12498,"ĠPeron":12499,"Ġtwins":12500,"Ġelite":12501,"ĠEdition":12502,"Ġaffecting":12503,"Ġglac":12504,"Ġradar":12505,"Ġradical":12506,"Ġbarrel":12507,"umping":12508,"ĠExeter":12509,"ĠExecutive":12510,"ĠExped":12511,"Ġencourag":12512,"Ġtroop":12513,"Ġdiscovers":12514,"Ġdeclaration":12515,"Ġvillain":12516,"Ġswitch":12517,"Ġ1896":12518,"Ġentirety":12519,"bridge":12520,"Ġcampaigns":12521,"Ġcommentators":12522,"Ġidentical":12523,"Ġagrees":12524,"ĠBerk":12525,"Ġlacks":12526,"Ġcorrid":12527,"ĠMedical":12528,"Ġrounded":12529,"castle":12530,"ĠBoat":12531,"Ġ1862":12532,"Ġcostumes":12533,"ĠMaryang":12534,"Ġachievement":12535,"Ġpersisted":12536,"ĠFez":12537,"Ġpainter":12538,"Ġgraduated":12539,"Ġmemoir":12540,"ĠArtillery":12541,"Ġparticipation":12542,"ships":12543,"ratch":12544,"Ġapplications":12545,"Ġsatir":12546,"Ġfrequency":12547,"ĠVerstapp":12548,"Ġdeeply":12549,"Ġriff":12550,"Ġlogs":12551,"Ġbombers":12552,"Ġfocuses":12553,"ĠJamie":12554,"Ġjudo":12555,"Ġmurd":12556,"ĠBobby":12557,"ĠGoat":12558,"Äģdv":12559,"Ġvocalist":12560,"Ġathletics":12561,"Ġdynam":12562,"ĠAnnals":12563,"Ġextraord":12564,"Ġmessages":12565,"Ġprinting":12566,"ĠPopM":12567,"Ġexhibit":12568,"Ġemphasized":12569,"Ġfungi":12570,"Ġbelonged":12571,"Ġtargeted":12572,"Ġrestaurants":12573,"ĠLiberty":12574,"ĠAthletics":12575,"ĠFreedom":12576,"ĠBruins":12577,"Ġsailors":12578,"ĠShaolin":12579,"Ġproposals":12580,"boards":12581,"Ġplumage":12582,"ĠIntellig":12583,"Ġsubmarines":12584,"Ġcorresponding":12585,"Ġmutual":12586,"Ġfairly":12587,"Ġenlisted":12588,"Ġawareness":12589,"Ġdrugs":12590,"ĠPuppet":12591,"Ġsymmet":12592,"ĠCampbeltown":12593,"Ġgallery":12594,"ĠDurham":12595,"Ġskelet":12596,"Ġgathering":12597,"ĠWolfpack":12598,"Ġanthrop":12599,"Ġcensus":12600,"Ġabsolut":12601,"Ġpatrols":12602,"Ġborrowed":12603,"ught":12604,"Ġgarden":12605,"Ġborders":12606,"Ġrecruited":12607,"Ġfrigates":12608,"ĠBehind":12609,"ĠMagdalen":12610,"Ġbinding":12611,"Ġrendition":12612,"ĠPanzer":12613,"Ġefficient":12614,"ĠPrivate":12615,"Ġaggregate":12616,"Ġenthusi":12617,"Ġdispatched":12618,"ĠMcNichol":12619,"ĠJohann":12620,"Ġadministered":12621,"Ġbonus":12622,"ĠAdministration":12623,"ĠGwend":12624,"Ġunstable":12625,"Ġalphabet":12626,"Ġcameras":12627,"ĠFerdinand":12628,"Ġnephew":12629,"Ġcomprehensive":12630,"ĠWikipedia":12631,"Ġreminiscent":12632,"ĠAmylostere":12633,"ĠThompson":12634,"ĠVerstappen":12635,"IV":12636,"OS":12637,"SU":12638,"cont":12639,"iu":12640,"lass":12641,"lides":12642,"mo":12643,"oons":12644,"vor":12645,"Ãº":12646,"Ġãĥ":12647,"Ġãģ":12648,"ĠãĤ":12649,"ĠËĪ":12650,"Ġtennis":12651,"Ġsle":12652,"Ġsink":12653,"Ġsaving":12654,"Ġoribi":12655,"Ġcod":12656,"Ġcock":12657,"Ġcorpor":12658,"isive":12659,"Ġbush":12660,"Ġpose":12661,"icial":12662,"Ġdign":12663,"Ġharsh":12664,"Ġhurd":12665,"leans":12666,"ĠTrou":12667,"ĠTyp":12668,"ĠTimb":12669,"Ġreorgan":12670,"ĠAway":12671,"ĠSag":12672,"ĠSri":12673,"ĠSport":12674,"ĠSEC":12675,"Ġthread":12676,"Ġthorough":12677,"ĠClear":12678,"ĠCemetery":12679,"Ġlib":12680,"Ġnas":12681,"Ġnice":12682,"Ġnaturally":12683,"acements":12684,"ĠMI":12685,"ĠMom":12686,"ĠMak":12687,"ĠMap":12688,"ĠBach":12689,"ĠITV":12690,"etics":12691,"idal":12692,"Ġforget":12693,"ighed":12694,"igger":12695,"ĠHold":12696,"ĠHakim":12697,"ushes":12698,"Ġstress":12699,"Ġstingray":12700,"iths":12701,"ayana":12702,"ĠPas":12703,"ĠRan":12704,"ĠRook":12705,"ĠRuth":12706,"emi":12707,"ĠFu":12708,"ĠFle":12709,"ulator":12710,"ĠWells":12711,"rained":12712,"ĠGa":12713,"ĠGuth":12714,"ĠGao":12715,"ĠLat":12716,"ĠNF":12717,"estock":12718,"agh":12719,"oderm":12720,"avian":12721,"ĠEch":12722,"ĠECU":12723,"ĠOri":12724,"Ġproxim":12725,"Ġchances":12726,"Ġoral":12727,"Ġexile":12728,"ĠKr":12729,"ĠKur":12730,"quet":12731,"Ġâĺ":12732,"Ġspear":12733,"ĠChau":12734,"Ġincons":12735,"uble":12736,"Ġabst":12737,"Ġrecount":12738,"ĠThan":12739,"Ġscope":12740,"Ġscores":12741,"Ġdisabled":12742,"Ġmanifest":12743,"Ġmaneu":12744,"Ġovercome":12745,"phan":12746,"ĠUnit":12747,"Ġalliance":12748,"ĠAny":12749,"Ġpoetic":12750,"ailand":12751,"Ġdecoration":12752,"othy":12753,"Ġcanons":12754,"Ġnearest":12755,"Ġflav":12756,"Ġflown":12757,"Ġassum":12758,"Ġintervention":12759,"ĠLeo":12760,"ĠJoan":12761,"Ġdoors":12762,"Ġ107":12763,"Ġblind":12764,"ĠSche":12765,"airn":12766,"Ġmining":12767,"Ġreporter":12768,"Ġdiff":12769,"ĠIndu":12770,"aux":12771,"Ġpolar":12772,"enne":12773,"Ġphylogen":12774,"erves":12775,"ĠClay":12776,"ĠClair":12777,"ĠCommodore":12778,"ĠEuro":12779,"ĠNorthwest":12780,"Ġmarg":12781,"ĠParachute":12782,"Ġconfidence":12783,"Ġrefuses":12784,"Ġslip":12785,"ĠAndr":12786,"Ġbreeds":12787,"Ġexplored":12788,"Ġexplaining":12789,"Ġhandling":12790,"Ġsuggestion":12791,"Ġdebris":12792,"Ġtotally":12793,"Ġdelight":12794,"Ġcrusad":12795,"Ġlessons":12796,"Ġstatues":12797,"Ġaffair":12798,"Ġeighteen":12799,"adesh":12800,"Ġerror":12801,"ĠRegiments":12802,"Ġintroduces":12803,"Ġblacks":12804,"Ġhumanity":12805,"Ġencounters":12806,"Ġmixing":12807,"Ġswit":12808,"Ġ1893":12809,"Ġ1899":12810,"Ġcoastline":12811,"ĠSecurity":12812,"ĠCareer":12813,"Ġconnect":12814,"ĠMoritz":12815,"Ġknows":12816,"Ġsexually":12817,"ĠOthers":12818,"Ġestimates":12819,"Ġarmoured":12820,"Ġarguments":12821,"Ġacceptance":12822,"ealous":12823,"Ġcontracts":12824,"Ġsuffer":12825,"itaire":12826,"Ġ1874":12827,"ĠGrant":12828,"Ġwoodland":12829,"Ġsubjected":12830,"ĠSchm":12831,"ĠUnderneath":12832,"ĠSyria":12833,"unta":12834,"Ġcontempor":12835,"Ġguitarist":12836,"ĠFormer":12837,"Ġprincess":12838,"Ġfocusing":12839,"ĠTwins":12840,"Ġultimate":12841,"ĠSoviets":12842,"Ġsymbols":12843,"ĠBrethren":12844,"Ġholes":12845,"Ġdisappear":12846,"Ġdemonstration":12847,"ĠEngineers":12848,"ĠTrip":12849,"Ġoxide":12850,"ĠJoshua":12851,"ĠCapital":12852,"ĠMDOT":12853,"ĠBuen":12854,"Ġfunctional":12855,"Ġromance":12856,"Ġattendance":12857,"Ġintelligent":12858,"Ġlabeled":12859,"ĠGreater":12860,"ĠIndustrial":12861,"Ġfoxes":12862,"ĠCarlos":12863,"Ġecl":12864,"ĠClassic":12865,"Ġexpeditions":12866,"Ġmistaken":12867,"ĠMurphy":12868,"ĠArik":12869,"ĠMuham":12870,"ĠEllis":12871,"ĠSusque":12872,"Ġmigration":12873,"Ġ978":12874,"ĠUNES":12875,"ĠJudith":12876,"ĠIngram":12877,"Ġwitnessed":12878,"ĠRowley":12879,"avery":12880,"Ġreconstruct":12881,"Ġrifles":12882,"Ġexplosive":12883,"ĠCopia":12884,"ĠSavage":12885,"Ġruins":12886,"Ġexercise":12887,"ĠMarshal":12888,"Ġsynthesis":12889,"ĠAldean":12890,"Ġsamples":12891,"Ġculm":12892,"ĠCruiser":12893,"Ġdeposits":12894,"Ġimplemented":12895,"ĠÅĮ":12896,"changed":12897,"Ġoverwhelmed":12898,"Ġabundant":12899,"Ġabundance":12900,"Ġobstacles":12901,"Ġlisteners":12902,"ĠLithuan":12903,"Ġturbines":12904,"Ġnickname":12905,"Ġfantasy":12906,"ĠUniversal":12907,"Ġrendered":12908,"Ġplayoffs":12909,"ĠDumpty":12910,"Ġprompting":12911,"Ġhence":12912,"ĠDiamond":12913,"tzow":12914,"ĠImportance":12915,"Ġsanctuary":12916,"ĠLÃ¼tzow":12917,"Ġdescriptions":12918,"ĠCurtis":12919,"ĠIAAF":12920,"ĠHairan":12921,"ĠChanology":12922,"Ġincomplete":12923,"ĠVistara":12924,"ĠBhairava":12925,"ĠTzu":12926,"Ġreperto":12927,"ĠSaxon":12928,"ĠNapoleon":12929,"ĠLeinster":12930,"ĠGuthrie":12931,"ĠGaozong":12932,"Ġproximity":12933,"ĠUNESCO":12934,"ZAC":12935,"bu":12936,"cle":12937,"cut":12938,"cos":12939,"cock":12940,"cope":12941,"music":12942,"rut":12943,"sville":12944,"uania":12945,"Äį":12946,"ĠÐ":12947,"Ġts":12948,"Ġtag":12949,"Ġtong":12950,"Ġtune":12951,"Ġtales":12952,"inich":12953,"inating":12954,"reation":12955,"orith":12956,"orrh":12957,"itars":12958,"Ġcyl":12959,"Ġcooking":12960,"anus":12961,"Ġine":12962,"ingham":12963,"asant":12964,"Ġmere":12965,"Ġmaps":12966,"ĠmRNA":12967,"Ġdug":12968,"Ġdull":12969,"Ġdining":12970,"Ġdimin":12971,"Ġhide":12972,"oub":12973,"ĠAS":12974,"ĠAren":12975,"ĠST":12976,"ĠSud":12977,"ĠSang":12978,"ĠSuez":12979,"ilogy":12980,"ĠCall":12981,"elope":12982,"omal":12983,"adir":12984,"aco":12985,"ĠMut":12986,"ĠMets":12987,"ece":12988,"Ġgram":12989,"ivorous":12990,"ĠHand":12991,"ĠHave":12992,"ĠPresent":12993,"ĠRud":12994,"ĠRound":12995,"ĠRush":12996,"ĠDry":12997,"ĠFal":12998,"ĠFil":12999,"ĠFig":13000,"ĠFlet":13001,"ĠFisher":13002,"ĠFlying":13003,"ĠFountain":13004,"osomes":13005,"ĠLiam":13006,"ĠNOK":13007,"andin":13008,"Ġanger":13009,"ĠEU":13010,"ĠEaster":13011,"ĠOk":13012,"ĠOke":13013,"ĠOjib":13014,"opy":13015,"opol":13016,"ĠInv":13017,"ĠIngr":13018,"Ġseed":13019,"Ġseated":13020,"ardi":13021,"Ġchann":13022,"Ġorange":13023,"aba":13024,"Ġexternal":13025,"ĠKu":13026,"ĠKaw":13027,"ĠkW":13028,"oved":13029,"ĠStones":13030,"Ġspor":13031,"Ġspoken":13032,"apy":13033,"Ġwheel":13034,"Ġcliff":13035,"assy":13036,"Ġrecip":13037,"Ġroot":13038,"ĠThailand":13039,"ĠAlph":13040,"itional":13041,"Ġdischar":13042,"acht":13043,"ĠYoko":13044,"Ġupr":13045,"ĠAnim":13046,"ĠAnsel":13047,"Ġremake":13048,"Ġdeciding":13049,"ugg":13050,"ĠMarily":13051,"Ġrelied":13052,"obee":13053,"Ġretreated":13054,"ĠNewfound":13055,"insky":13056,"Ġ104":13057,"uclear":13058,"veloped":13059,"tona":13060,"Ġexpanding":13061,"Ġtransform":13062,"Ġtransmitted":13063,"Ġemig":13064,"full":13065,"Ġmonster":13066,"ikh":13067,"Ġinsult":13068,"ĠGerald":13069,"Ã©l":13070,"ĠWarrior":13071,"ĠCarroll":13072,"Ġpassenger":13073,"Ġdamages":13074,"Ġgrace":13075,"Ġeditions":13076,"Ġpointing":13077,"ĠDeal":13078,"Ġdetect":13079,"ĠEuropium":13080,"Ġportraits":13081,"echobee":13082,"Ġslaves":13083,"opsis":13084,"Ġorganisations":13085,"Ġexplan":13086,"ĠFlair":13087,"ĠOrleans":13088,"ĠPeriod":13089,"Ġelectro":13090,"Ġeveryday":13091,"Ġcurve":13092,"ĠGeneration":13093,"Ġcompeting":13094,"Ġlesser":13095,"arma":13096,"Ġjoins":13097,"Ġhumanitarian":13098,"ĠPalmer":13099,"Ġboom":13100,"Ġ1892":13101,"Ġlikewise":13102,"ĠMonument":13103,"ĠMonica":13104,"Ġassociate":13105,"Ġ1859":13106,"Ġaveraged":13107,"Ġseparately":13108,"Ġimproving":13109,"Ġspecialized":13110,"Ġmaternal":13111,"alties":13112,"Ġceiling":13113,"ĠMarket":13114,"ĠHelen":13115,"Ġdonations":13116,"ĠNotable":13117,"Ġbreakdown":13118,"Ġstopping":13119,"Ġcrucial":13120,"ĠMetall":13121,"Ġpreventing":13122,"ĠJerry":13123,"ĠTurkey":13124,"ĠArchbishop":13125,"Ġconsiderably":13126,"Ġkinds":13127,"Ġdigit":13128,"ĠRobyn":13129,"ĠOutside":13130,"Ġlifted":13131,"Ġintersections":13132,"Ġchallenged":13133,"Ġsuspected":13134,"ĠDamage":13135,"ĠJulio":13136,"ĠKahn":13137,"ĠConfession":13138,"ĠDoof":13139,"ĠDoctor":13140,"ĠHalf":13141,"Ġdrafted":13142,"ĠFerry":13143,"ĠJosh":13144,"Ġjournalists":13145,"ĠConstantin":13146,"Ġremixes":13147,"Ġminerals":13148,"ĠSubsequently":13149,"ĠKarl":13150,"Ġstrikeouts":13151,"Ġimagination":13152,"ĠBasement":13153,"ĠAdventures":13154,"Ġreflects":13155,"Ġcrafts":13156,"ĠCuba":13157,"Ġsummary":13158,"ĠBiography":13159,"Ġdistinguish":13160,"Ġsegments":13161,"Ġinstrumentation":13162,"ĠDomnall":13163,"ĠSaigon":13164,"Ġstreams":13165,"Ġconsequence":13166,"Ġbesie":13167,"ĠCruise":13168,"ĠOfficer":13169,"ĠHoriz":13170,"ĠUrban":13171,"Ġpersuaded":13172,"ĠLithuania":13173,"Ġmammal":13174,"ĠBuddhist":13175,"ĠRebbie":13176,"Ġprinciples":13177,"isphere":13178,"ĠRapids":13179,"ĠObserver":13180,"Ġbarely":13181,"Ġdispersed":13182,"ĠCadets":13183,"Ġnineteenth":13184,"Ġphenomenon":13185,"Ġexcellent":13186,"Ġfavourite":13187,"tymology":13188,"Ġhorizont":13189,"Ġdiscontin":13190,"Ġhiatus":13191,"ĠANZAC":13192,"ĠLorenzo":13193,"ĠStarting":13194,"ĠCrimson":13195,"ĠPeshkin":13196,"ĠRalph":13197,"ĠKaimanawa":13198,"ĠExpedition":13199,"ÄģdvÄģda":13200,"Ġâĺī":13201,"ĠSusqueh":13202,"ĠOkeechobee":13203,"ĠIngrid":13204,"ĠMarilyn":13205,"ĠNewfoundland":13206,"aic":13207,"aos":13208,"auc":13209,"aude":13210,"bone":13211,"bled":13212,"ggy":13213,"jin":13214,"lore":13215,"mund":13216,"nance":13217,"run":13218,"Ã«":13219,"ÅĦ":13220,"Ġé":13221,"Ġties":13222,"Ġtends":13223,"inter":13224,"eria":13225,"rection":13226,"oria":13227,"itate":13228,"itall":13229,"itating":13230,"enz":13231,"Ġfing":13232,"Ġfisher":13233,"Ġinhib":13234,"Ġpir":13235,"Ġtoy":13236,"rost":13237,"icing":13238,"Ġmad":13239,"Ġmold":13240,"Ġdanc":13241,"Ġdread":13242,"Ġdads":13243,"ĠTa":13244,"ĠAires":13245,"ĠSincl":13246,"ĠCann":13247,"ĠClement":13248,"ĠChemical":13249,"Ġnaut":13250,"acrit":13251,"ĠIl":13252,"Ġgains":13253,"olly":13254,"ĠHond":13255,"ĠHern":13256,"ĠHutch":13257,"Ġstump":13258,"ayed":13259,"ĠPD":13260,"ĠPion":13261,"ĠPear":13262,"ĠPomp":13263,"ĠRey":13264,"ĠROK":13265,"thodox":13266,"ĠWang":13267,"ĠGand":13268,"ĠGry":13269,"ĠGothic":13270,"osely":13271,"ĠLim":13272,"agger":13273,"ĠEps":13274,"Ġprobe":13275,"Ġproof":13276,"rescent":13277,"Ġvent":13278,"ĠInformation":13279,"Ġchase":13280,"about":13281,"ĠKet":13282,"ĠKod":13283,"ĠKend":13284,"Ġkiss":13285,"ĠStansfield":13286,"astian":13287,"Ġleather":13288,"ipality":13289,"ellor":13290,"ellers":13291,"ĠChile":13292,"Ġunl":13293,"Ġunrel":13294,"ĠVisc":13295,"Ġcomparing":13296,"Ġclad":13297,"Ġresolved":13298,"Ġrecapt":13299,"Ġrecruit":13300,"Ġrecalls":13301,"ĠThing":13302,"Ġperc":13303,"ulty":13304,"Ġdisorder":13305,"Ġagencies":13306,"ĠYet":13307,"Ġoutp":13308,"enshm":13309,"alsock":13310,"Ġsecuring":13311,"Ġremote":13312,"ĠComics":13313,"ĠComair":13314,"ĠArbe":13315,"Ġregister":13316,"Ġpeer":13317,"ĠShadow":13318,"Ġthereby":13319,"otherapy":13320,"Ġ126":13321,"ĠScandin":13322,"Ġdepends":13323,"Ġ119":13324,"Ġmillions":13325,"ĠIndolence":13326,"ĠMayor":13327,"Ġinfl":13328,"Ġinfected":13329,"ennial":13330,"Ġpreval":13331,"amedu":13332,"Ġcarn":13333,"Ġ137":13334,"Ġmodes":13335,"Ġcharacterised":13336,"Ġguitars":13337,"Ġannex":13338,"ĠFranz":13339,"Ġconfident":13340,"ĠMusical":13341,"Ġparade":13342,"Ġbreast":13343,"Ġdrink":13344,"ĠPrim":13345,"Ġdemanding":13346,"Ġdemographic":13347,"ĠManor":13348,"Ġviewpoint":13349,"leroderm":13350,"Ġtraders":13351,"ĠCharan":13352,"ĠCharacter":13353,"ĠTrade":13354,"ĠTruth":13355,"encer":13356,"Ġprofound":13357,"Ġsolitaire":13358,"Ġterrorist":13359,"Ġsometime":13360,"ogns":13361,"restrial":13362,"grim":13363,"Ġsuperst":13364,"Ġfights":13365,"ĠMorris":13366,"Ġ1888":13367,"Ġ355":13368,"ĠBoom":13369,"Ġ1863":13370,"ĠEmma":13371,"Ġachievements":13372,"ĠWilf":13373,"Ġ1877":13374,"ĠAppro":13375,"Ġcontrace":13376,"Ġ1836":13377,"Ġblockade":13378,"Ġfails":13379,"Ġdrown":13380,"ĠMerri":13381,"ĠMetropolitan":13382,"ĠReserve":13383,"inental":13384,"ĠBeyond":13385,"Ġattractive":13386,"Ġhopes":13387,"Ġacquis":13388,"ĠDelano":13389,"Ġthrows":13390,"Ġsalmon":13391,"ĠCommandments":13392,"ĠControl":13393,"ĠCasting":13394,"Ġhotels":13395,"Ġinvestigate":13396,"Ġdiseases":13397,"Ġharvest":13398,"Ġcanceled":13399,"ĠConfessions":13400,"Ġchemistry":13401,"ĠSarah":13402,"ĠEscape":13403,"Ġconcentrations":13404,"Ġmanufacturer":13405,"Ġmechanism":13406,"Ġneutron":13407,"Ġincorporates":13408,"ĠHistorical":13409,"Ġarticles":13410,"Ġvenom":13411,"Ġdoctor":13412,"ogenic":13413,"Ġphilosopher":13414,"ĠBarbara":13415,"ĠMoving":13416,"ĠLeonardo":13417,"Ġremnant":13418,"Ġcontributions":13419,"Ġreserves":13420,"Ġunsuccessfully":13421,"Ġdescendants":13422,"Ġcorrespondence":13423,"ĠWinds":13424,"Ġdownloadable":13425,"Ġsediment":13426,"ĠDurand":13427,"Ġskeleton":13428,"Ġswept":13429,"Ġornith":13430,"Ġprolong":13431,"Ġrumors":13432,"Ġhemmem":13433,"ĠMothers":13434,"Ġtributary":13435,"ĠNicholson":13436,"Ġhelicopters":13437,"Ġmammals":13438,"Ġattributes":13439,"ĠParalympic":13440,"Ġlatest":13441,"ĠNashville":13442,"Ġfatalities":13443,"ĠBarnes":13444,"Ġfossil":13445,"Ġenzymes":13446,"Ġsketch":13447,"ĠCarty":13448,"ĠObservatory":13449,"Ġbranches":13450,"Ġsupplied":13451,"ĠZhang":13452,"Ġlivestock":13453,"Ġreopened":13454,"ĠLoyalsock":13455,"Ġprecipitation":13456,"Ġenlarged":13457,"Ġscenario":13458,"ĠHarmon":13459,"Ġalgorith":13460,"ĠFITs":13461,"Ġvulnerable":13462,"ĠVishnu":13463,"ĠHospitall":13464,"ĠIntelligence":13465,"ĠGwendolen":13466,"ĠBuenos":13467,"ĠArikamedu":13468,"Ġrepertoire":13469,"orrhiz":13470,"Ġchannels":13471,"ĠAnselm":13472,"ĠDoofenshm":13473,"ĠSinclair":13474,"Ġnautical":13475,"bard":13476,"eus":13477,"fam":13478,"lon":13479,"lad":13480,"lims":13481,"pur":13482,"tovac":13483,"uits":13484,"vation":13485,"áº":13486,"Ġtet":13487,"Ġtension":13488,"inh":13489,"onium":13490,"Ġsor":13491,"Ġworse":13492,"Ġcub":13493,"Ġfever":13494,"Ġflee":13495,"anim":13496,"alo":13497,"Ġpover":13498,"Ġment":13499,"Ġdried":13500,"Ġhier":13501,"Ġhunt":13502,"leted":13503,"ĠTro":13504,"ĠTanya":13505,"ĠSak":13506,"ĠSovereign":13507,"ĠCA":13508,"ĠCur":13509,"ĠCul":13510,"ĠCert":13511,"elia":13512,"elih":13513,"Ġlas":13514,"Ġlion":13515,"Ġease":13516,"ĠMeth":13517,"ĠTheater":13518,"ĠBoulder":13519,"ĠIb":13520,"Ġgay":13521,"etary":13522,"oles":13523,"imp":13524,"immer":13525,"otilla":13526,"ĠHip":13527,"ĠHoys":13528,"ĠHadd":13529,"Ġstrain":13530,"Ġstuff":13531,"Ġstrange":13532,"Ġbeak":13533,"ĠRico":13534,"ĠRandy":13535,"ĠDraft":13536,"unct":13537,"employ":13538,"ĠFruit":13539,"ĠWa":13540,"ĠWonder":13541,"ĠGy":13542,"ĠLars":13543,"ĠNam":13544,"Ġanalys":13545,"Ġanonymous":13546,"Ġcomics":13547,"Ġvoyage":13548,"ortal":13549,"ppets":13550,"Ġsear":13551,"occ":13552,"ĠKra":13553,"ĠKum":13554,"ĠKarn":13555,"ĠUC":13556,"ĠStrong":13557,"asting":13558,"Ġspite":13559,"ritt":13560,"ĠChair":13561,"ĠVett":13562,"Ġincor":13563,"Ġarsenal":13564,"assing":13565,"Ġreserved":13566,"Ġrouting":13567,"ĠThings":13568,"plain":13569,"Ġjealous":13570,"Ġjunta":13571,"Ġoutcome":13572,"Ġoutput":13573,"cedes":13574,"Ġweb":13575,"Ġweighed":13576,"Ġworker":13577,"ĠEno":13578,"Ġrelating":13579,"Ġmegal":13580,"Ġthanks":13581,"Ġflaw":13582,"ologically":13583,"Ġrelevant":13584,"Ġregulation":13585,"Ġregiments":13586,"Ġformula":13587,"Ġassign":13588,"Ġassessed":13589,"ĠSeb":13590,"Ġquit":13591,"Ġinterception":13592,"Ġinterrupted":13593,"Ġintermediate":13594,"Ġamazing":13595,"ĠRef":13596,"Ġepit":13597,"Ġtraits":13598,"ĠScleroderm":13599,"rowing":13600,"prising":13601,"Ġadds":13602,"Ġmonaster":13603,"Ġ153":13604,"Ġ157":13605,"elfth":13606,"Ġrepaired":13607,"iker":13608,"ĠIndeed":13609,"Ġdirections":13610,"ĠConsequently":13611,"enna":13612,"Ġrespected":13613,"Ã©ra":13614,"Ġcarrier":13615,"ĠCarn":13616,"ĠCarr":13617,"Ġprovinces":13618,"omanry":13619,"ĠPlant":13620,"ĠPlaying":13621,"Ġmaturity":13622,"Ġ139":13623,"Ġsupports":13624,"Ġdamaging":13625,"ĠHerbert":13626,"ĠMegan":13627,"Ġcareers":13628,"Ġconfluence":13629,"Ġreflection":13630,"ĠMuslims":13631,"Ġpossessed":13632,"Ġthirds":13633,"ĠPhys":13634,"ambers":13635,"Ġrequiring":13636,"ĠOrtona":13637,"ĠManager":13638,"Ġtermed":13639,"levard":13640,"Ġmidfield":13641,"Ġarchipelago":13642,"Ġdelays":13643,"Ġconviction":13644,"Ġprojected":13645,"Ġvictorious":13646,"ĠAssist":13647,"ischer":13648,"Ġobserve":13649,"Ġfacts":13650,"Ġreadily":13651,"atorial":13652,"Ġcharting":13653,"ĠBlackburn":13654,"ĠRegard":13655,"ĠMichaels":13656,"ĠGlas":13657,"Ġadmir":13658,"Ġboost":13659,"ĠRoyston":13660,"ĠHamar":13661,"Ġidentifies":13662,"Ġ1853":13663,"Ġ1858":13664,"Ġfarms":13665,"Ġimprov":13666,"Ġcreature":13667,"ĠDuarte":13668,"Ġvolcan":13669,"Ġ1885":13670,"ĠGameS":13671,"stituted":13672,"ĠKhoo":13673,"Ġrebel":13674,"Ġcontracted":13675,"Ġfortified":13676,"Ġconducting":13677,"uckle":13678,"ĠMostar":13679,"Ġmerged":13680,"Ġthinks":13681,"ĠSquad":13682,"Ġdissolution":13683,"ĠAppl":13684,"Ġmaintains":13685,"Ġremoving":13686,"Ġcruise":13687,"Ġliterally":13688,"ĠLaud":13689,"ĠFilms":13690,"Ġdropping":13691,"Ġcomplained":13692,"Ġ750":13693,"Ġdiscussing":13694,"Ġdiscussions":13695,"Ġensuing":13696,"ĠCatholicism":13697,"Ġambitious":13698,"Ġcannon":13699,"ĠItalians":13700,"Ġthickness":13701,"Ġdegener":13702,"Ġgraphs":13703,"Ġphotography":13704,"ĠFinland":13705,"Ġlifestyle":13706,"Ġinvestigated":13707,"ĠErn":13708,"Ġversus":13709,"Ġjumps":13710,"ĠBolton":13711,"Ġmelod":13712,"ĠAvtovac":13713,"ocratic":13714,"Ġsnake":13715,"ĠReviewers":13716,"Ġcontacted":13717,"Ġneutrino":13718,"Ġlegislature":13719,"ĠKnights":13720,"Ġdeployment":13721,"Ġpanels":13722,"Ġcomprises":13723,"ĠMicro":13724,"ĠGiÃ£":13725,"ĠAdditional":13726,"ĠRosberg":13727,"Ġstrengthening":13728,"Ġstriker":13729,"Ġmortar":13730,"swick":13731,"Ġunusually":13732,"ĠSussex":13733,"Ġcooler":13734,"Ġsummit":13735,"Ġaccidentally":13736,"ĠMelbourne":13737,"ĠVolunte":13738,"ĠFeld":13739,"ĠFelicia":13740,"Ġlawsuit":13741,"Ġprosper":13742,"Ġexercised":13743,"ĠWinter":13744,"Ġbeside":13745,"Ġcorps":13746,"ĠDescrib":13747,"Ġfloating":13748,"Ġconquered":13749,"Ġclouds":13750,"ĠBroncos":13751,"Ġproceeds":13752,"ĠLaboratory":13753,"Ġprolific":13754,"Ġacclaimed":13755,"ĠAPF":13756,"ĠCulture":13757,"Ġcommitment":13758,"Ġorbital":13759,"Ġloyalty":13760,"Ġnavigation":13761,"ĠJennifer":13762,"Ġresignation":13763,"Ġnicknamed":13764,"Ġfrigate":13765,"Ġimprisoned":13766,"Ġerrors":13767,"ĠExpressway":13768,"ĠParalympics":13769,"ĠSupport":13770,"Ġumpire":13771,"ĠVeeru":13772,"ĠIndonesian":13773,"ĠPhilippines":13774,"Ġneighborhoods":13775,"Ġdodo":13776,"Ġseventeen":13777,"Ġveteran":13778,"ĠNME":13779,"Ġcelebration":13780,"ĠJagann":13781,"Ġincursion":13782,"ĠRIAA":13783,"ĠAssyrian":13784,"Ġenvelope":13785,"osystem":13786,"ĠBrunswick":13787,"ĠPokiri":13788,"Ġabnormal":13789,"Ġclusters":13790,"Ġeldest":13791,"Ġdisliked":13792,"ĠTucker":13793,"Ġalcohol":13794,"ĠOjibwe":13795,"Ġpoverty":13796,"elihood":13797,"ĠVettel":13798,"10":13799,"22":13800,"LC":13801,"TA":13802,"cel":13803,"front":13804,"lot":13805,"lio":13806,"sa":13807,"sky":13808,"yers":13809,"Ãł":13810,"Ġes":13811,"Ġtran":13812,"hell":13813,"hears":13814,"Ġtheolog":13815,"Ġtheories":13816,"Ġtheoret":13817,"onald":13818,"Ġsinking":13819,"edd":13820,"Ġomn":13821,"Ġwire":13822,"ndom":13823,"Ġfo":13824,"Ġfet":13825,"Ġfib":13826,"arc":13827,"Ġbite":13828,"Ġbapt":13829,"Ġinacc":13830,"Ġpm":13831,"Ġpest":13832,"Ġpock":13833,"Ġhate":13834,"ĠAch":13835,"ĠAqu":13836,"stick":13837,"ĠCot":13838,"ĠCore":13839,"ĠCost":13840,"Ġlock":13841,"Ġlung":13842,"Ġlighter":13843,"Ġna":13844,"adows":13845,"acular":13846,"ĠMult":13847,"ĠMann":13848,"ĠBun":13849,"ĠBoca":13850,"ĠIst":13851,"Ġgif":13852,"Ġgrap":13853,"idan":13854,"ivial":13855,"imol":13856,"imination":13857,"ĠHav":13858,"ĠHab":13859,"ĠHous":13860,"ĠHappy":13861,"usc":13862,"Ġstiff":13863,"ĠPont":13864,"heric":13865,"ĠFear":13866,"ĠFiction":13867,"ĠFitz":13868,"ĠFischer":13869,"Ġalbe":13870,"chan":13871,"ĠWey":13872,"ĠWany":13873,"ĠWemb":13874,"rah":13875,"raham":13876,"ĠGet":13877,"ĠGru":13878,"ĠLyc":13879,"ĠLakes":13880,"ĠLands":13881,"ĠLED":13882,"ĠNP":13883,"ĠNature":13884,"Ġank":13885,"isting":13886,"ĠOb":13887,"Ġproced":13888,"illon":13889,"Ġrice":13890,"Ġrises":13891,"arden":13892,"abh":13893,"ĠKid":13894,"ĠKras":13895,"ĠKusan":13896,"quir":13897,"Ġkids":13898,"ĠStopp":13899,"Ġsperm":13900,"Ġspelled":13901,"Ġye":13902,"Ġleaf":13903,"ineae":13904,"ighting":13905,"ĠChamber":13906,"oga":13907,"ogle":13908,"Ġunemploy":13909,"ĠVoy":13910,"ĠVoice":13911,"outed":13912,"Ġjoy":13913,"Ġenable":13914,"angered":13915,"ensional":13916,"amped":13917,"Ġallies":13918,"Ġbeta":13919,"ugged":13920,"Ġtraces":13921,"Ġrelocated":13922,"obon":13923,"Ġcolored":13924,"Ġactively":13925,"Ġformations":13926,"Ġassured":13927,"ĠSeas":13928,"Ġsubstances":13929,"Ġaccord":13930,"Ġraids":13931,"Ġrandom":13932,"anne":13933,"Ġsynd":13934,"ucle":13935,"arsha":13936,"Ġhighlights":13937,"Ġblank":13938,"Ġexpense":13939,"Ġmonk":13940,"Ġmetals":13941,"ĠIndians":13942,"ĠBrigadier":13943,"Ġinstances":13944,"Ġinfilt":13945,"ĠAustin":13946,"Ġwarrant":13947,"Ġprovisions":13948,"Ġ134":13949,"ĠColonna":13950,"ĠAden":13951,"anche":13952,"Ġvariant":13953,"ĠProdu":13954,"apper":13955,"Ġprogn":13956,"Ġtopological":13957,"Ġtracking":13958,"ĠHispan":13959,"ĠOrs":13960,"Ġcaptivity":13961,"Ġtrademark":13962,"ĠPerth":13963,"Ġforever":13964,"Ġeastward":13965,"aughter":13966,"Ġcompetitor":13967,"Ġ260":13968,"Ġterror":13969,"Ġpatients":13970,"rington":13971,"Ġaffection":13972,"Ġequally":13973,"space":13974,"ĠAirlines":13975,"Ġbarracks":13976,"ĠGlen":13977,"Ġadmits":13978,"Ġfunk":13979,"ĠExc":13980,"Ġwidth":13981,"araoh":13982,"Ġswing":13983,"lessness":13984,"ĠOliver":13985,"Ġsteambo":13986,"Ġtraditionally":13987,"Ġcellular":13988,"oresc":13989,"amaic":13990,"Ġseparation":13991,"Ġcollision":13992,"Ġquarters":13993,"Ġironc":13994,"ĠHenri":13995,"ĠGalile":13996,"ĠPeggy":13997,"Ġillum":13998,"ĠOdys":13999,"áĥĺ":14000,"Ġreasoning":14001,"ĠOlivia":14002,"Ġneglected":14003,"ĠQuar":14004,"Ġhonest":14005,"Ġcivilization":14006,"Ġclearing":14007,"Ġthreatening":14008,"Ġ1838":14009,"Ġsynonym":14010,"Ġphysically":14011,"Ġgraduating":14012,"Ġframes":14013,"Ġgraves":14014,"Ġeducated":14015,"ĠAntiqu":14016,"Ġ1847":14017,"irtz":14018,"Ġparticipating":14019,"ĠDrive":14020,"Ġvisitor":14021,"ĠMerc":14022,"ĠHolland":14023,"Ġembry":14024,"ĠPatriarch":14025,"Ġscreenplay":14026,"Ġcolonists":14027,"Ġconcludes":14028,"Ġshoots":14029,"ĠSurrender":14030,"Ġ330":14031,"Ġnuclei":14032,"Ġacquire":14033,"Ġjudg":14034,"ĠTempl":14035,"Ġsuspic":14036,"Ġsuspect":14037,"Ġparks":14038,"Ġharbor":14039,"ĠOffensive":14040,"ĠPrepar":14041,"Ġmelan":14042,
[...]
